#ifndef TS_FORECAST_LITE_H
#define TS_FORECAST_LITE_H


unsigned int ts_forecast_lite_len = 12000;
unsigned char ts_forecast_lite[] = {
 0x20, 0x00, 0x00, 0x00, 0x54, 0x46, 0x4c, 0x33, 0x00, 0x00, 0x00, 0x00,
  0x00, 0x00, 0x12, 0x00, 0x1c, 0x00, 0x04, 0x00, 0x08, 0x00, 0x0c, 0x00,
  0x10, 0x00, 0x14, 0x00, 0x00, 0x00, 0x18, 0x00, 0x12, 0x00, 0x00, 0x00,
  0x03, 0x00, 0x00, 0x00, 0xb0, 0x2d, 0x00, 0x00, 0xd4, 0x0a, 0x00, 0x00,
  0xbc, 0x0a, 0x00, 0x00, 0x34, 0x00, 0x00, 0x00, 0x04, 0x00, 0x00, 0x00,
  0x01, 0x00, 0x00, 0x00, 0x04, 0x00, 0x00, 0x00, 0xe0, 0xdd, 0xff, 0xff,
  0x08, 0x00, 0x00, 0x00, 0x5d, 0x00, 0x00, 0x00, 0x13, 0x00, 0x00, 0x00,
  0x6d, 0x69, 0x6e, 0x5f, 0x72, 0x75, 0x6e, 0x74, 0x69, 0x6d, 0x65, 0x5f,
  0x76, 0x65, 0x72, 0x73, 0x69, 0x6f, 0x6e, 0x00, 0x5e, 0x00, 0x00, 0x00,
  0x70, 0x0a, 0x00, 0x00, 0x5c, 0x0a, 0x00, 0x00, 0x40, 0x0a, 0x00, 0x00,
  0x2c, 0x0a, 0x00, 0x00, 0x18, 0x0a, 0x00, 0x00, 0xf4, 0x09, 0x00, 0x00,
  0xd0, 0x09, 0x00, 0x00, 0xbc, 0x09, 0x00, 0x00, 0xa8, 0x09, 0x00, 0x00,
  0x54, 0x09, 0x00, 0x00, 0x00, 0x09, 0x00, 0x00, 0xdc, 0x08, 0x00, 0x00,
  0xc8, 0x08, 0x00, 0x00, 0xb4, 0x08, 0x00, 0x00, 0x90, 0x08, 0x00, 0x00,
  0x6c, 0x08, 0x00, 0x00, 0x48, 0x08, 0x00, 0x00, 0x3c, 0x08, 0x00, 0x00,
  0x28, 0x08, 0x00, 0x00, 0x14, 0x08, 0x00, 0x00, 0x00, 0x08, 0x00, 0x00,
  0xec, 0x07, 0x00, 0x00, 0xd8, 0x07, 0x00, 0x00, 0xc4, 0x07, 0x00, 0x00,
  0xb0, 0x07, 0x00, 0x00, 0x9c, 0x07, 0x00, 0x00, 0x88, 0x07, 0x00, 0x00,
  0x74, 0x07, 0x00, 0x00, 0x60, 0x07, 0x00, 0x00, 0x4c, 0x07, 0x00, 0x00,
  0x38, 0x07, 0x00, 0x00, 0x24, 0x07, 0x00, 0x00, 0x10, 0x07, 0x00, 0x00,
  0xfc, 0x06, 0x00, 0x00, 0xe8, 0x06, 0x00, 0x00, 0xd4, 0x06, 0x00, 0x00,
  0xc0, 0x06, 0x00, 0x00, 0xac, 0x06, 0x00, 0x00, 0x98, 0x06, 0x00, 0x00,
  0x84, 0x06, 0x00, 0x00, 0x70, 0x06, 0x00, 0x00, 0x5c, 0x06, 0x00, 0x00,
  0x48, 0x06, 0x00, 0x00, 0x34, 0x06, 0x00, 0x00, 0x20, 0x06, 0x00, 0x00,
  0x0c, 0x06, 0x00, 0x00, 0xf8, 0x05, 0x00, 0x00, 0xe4, 0x05, 0x00, 0x00,
  0xd0, 0x05, 0x00, 0x00, 0xbc, 0x05, 0x00, 0x00, 0xa0, 0x05, 0x00, 0x00,
  0x8c, 0x05, 0x00, 0x00, 0x78, 0x05, 0x00, 0x00, 0x24, 0x05, 0x00, 0x00,
  0xd0, 0x04, 0x00, 0x00, 0x8c, 0x03, 0x00, 0x00, 0x38, 0x03, 0x00, 0x00,
  0x24, 0x03, 0x00, 0x00, 0x00, 0x03, 0x00, 0x00, 0xdc, 0x02, 0x00, 0x00,
  0xb8, 0x02, 0x00, 0x00, 0x94, 0x02, 0x00, 0x00, 0x88, 0x02, 0x00, 0x00,
  0x74, 0x02, 0x00, 0x00, 0x60, 0x02, 0x00, 0x00, 0x4c, 0x02, 0x00, 0x00,
  0x38, 0x02, 0x00, 0x00, 0x24, 0x02, 0x00, 0x00, 0x10, 0x02, 0x00, 0x00,
  0xfc, 0x01, 0x00, 0x00, 0xe8, 0x01, 0x00, 0x00, 0xd4, 0x01, 0x00, 0x00,
  0xc0, 0x01, 0x00, 0x00, 0xac, 0x01, 0x00, 0x00, 0x98, 0x01, 0x00, 0x00,
  0x84, 0x01, 0x00, 0x00, 0x70, 0x01, 0x00, 0x00, 0x5c, 0x01, 0x00, 0x00,
  0x48, 0x01, 0x00, 0x00, 0x34, 0x01, 0x00, 0x00, 0x20, 0x01, 0x00, 0x00,
  0x0c, 0x01, 0x00, 0x00, 0xf8, 0x00, 0x00, 0x00, 0xe4, 0x00, 0x00, 0x00,
  0xd0, 0x00, 0x00, 0x00, 0xbc, 0x00, 0x00, 0x00, 0xa8, 0x00, 0x00, 0x00,
  0x94, 0x00, 0x00, 0x00, 0x80, 0x00, 0x00, 0x00, 0x6c, 0x00, 0x00, 0x00,
  0x58, 0x00, 0x00, 0x00, 0x44, 0x00, 0x00, 0x00, 0x30, 0x00, 0x00, 0x00,
  0x04, 0x00, 0x00, 0x00, 0xd6, 0xdd, 0xff, 0xff, 0x04, 0x00, 0x00, 0x00,
  0x10, 0x00, 0x00, 0x00, 0x31, 0x2e, 0x31, 0x35, 0x2e, 0x30, 0x00, 0x00,
  0x00, 0x00, 0x00, 0x00, 0x00, 0x00, 0x00, 0x00, 0x00, 0x00, 0x00, 0x00,
  0x00, 0x00, 0x00, 0x00, 0x00, 0x00, 0x00, 0x00, 0x98, 0xd3, 0xff, 0xff,
  0x00, 0x00, 0x00, 0x00, 0x00, 0x00, 0x00, 0x00, 0x00, 0x00, 0x00, 0x00,
  0xa8, 0xd3, 0xff, 0xff, 0x00, 0x00, 0x00, 0x00, 0x00, 0x00, 0x00, 0x00,
  0x00, 0x00, 0x00, 0x00, 0xb8, 0xd3, 0xff, 0xff, 0x00, 0x00, 0x00, 0x00,
  0x00, 0x00, 0x00, 0x00, 0x00, 0x00, 0x00, 0x00, 0xc8, 0xd3, 0xff, 0xff,
  0x00, 0x00, 0x00, 0x00, 0x00, 0x00, 0x00, 0x00, 0x00, 0x00, 0x00, 0x00,
  0xd8, 0xd3, 0xff, 0xff, 0x00, 0x00, 0x00, 0x00, 0x00, 0x00, 0x00, 0x00,
  0x00, 0x00, 0x00, 0x00, 0xe8, 0xd3, 0xff, 0xff, 0x00, 0x00, 0x00, 0x00,
  0x00, 0x00, 0x00, 0x00, 0x00, 0x00, 0x00, 0x00, 0xf8, 0xd3, 0xff, 0xff,
  0x00, 0x00, 0x00, 0x00, 0x00, 0x00, 0x00, 0x00, 0x00, 0x00, 0x00, 0x00,
  0x08, 0xd4, 0xff, 0xff, 0x00, 0x00, 0x00, 0x00, 0x00, 0x00, 0x00, 0x00,
  0x00, 0x00, 0x00, 0x00, 0x18, 0xd4, 0xff, 0xff, 0x00, 0x00, 0x00, 0x00,
  0x00, 0x00, 0x00, 0x00, 0x00, 0x00, 0x00, 0x00, 0x28, 0xd4, 0xff, 0xff,
  0x00, 0x00, 0x00, 0x00, 0x00, 0x00, 0x00, 0x00, 0x00, 0x00, 0x00, 0x00,
  0x38, 0xd4, 0xff, 0xff, 0x00, 0x00, 0x00, 0x00, 0x00, 0x00, 0x00, 0x00,
  0x00, 0x00, 0x00, 0x00, 0x48, 0xd4, 0xff, 0xff, 0x00, 0x00, 0x00, 0x00,
  0x00, 0x00, 0x00, 0x00, 0x00, 0x00, 0x00, 0x00, 0x58, 0xd4, 0xff, 0xff,
  0x00, 0x00, 0x00, 0x00, 0x00, 0x00, 0x00, 0x00, 0x00, 0x00, 0x00, 0x00,
  0x68, 0xd4, 0xff, 0xff, 0x00, 0x00, 0x00, 0x00, 0x00, 0x00, 0x00, 0x00,
  0x00, 0x00, 0x00, 0x00, 0x78, 0xd4, 0xff, 0xff, 0x00, 0x00, 0x00, 0x00,
  0x00, 0x00, 0x00, 0x00, 0x00, 0x00, 0x00, 0x00, 0x88, 0xd4, 0xff, 0xff,
  0x00, 0x00, 0x00, 0x00, 0x00, 0x00, 0x00, 0x00, 0x00, 0x00, 0x00, 0x00,
  0x98, 0xd4, 0xff, 0xff, 0x00, 0x00, 0x00, 0x00, 0x00, 0x00, 0x00, 0x00,
  0x00, 0x00, 0x00, 0x00, 0xa8, 0xd4, 0xff, 0xff, 0x00, 0x00, 0x00, 0x00,
  0x00, 0x00, 0x00, 0x00, 0x00, 0x00, 0x00, 0x00, 0xb8, 0xd4, 0xff, 0xff,
  0x00, 0x00, 0x00, 0x00, 0x00, 0x00, 0x00, 0x00, 0x00, 0x00, 0x00, 0x00,
  0xc8, 0xd4, 0xff, 0xff, 0x00, 0x00, 0x00, 0x00, 0x00, 0x00, 0x00, 0x00,
  0x00, 0x00, 0x00, 0x00, 0xd8, 0xd4, 0xff, 0xff, 0x00, 0x00, 0x00, 0x00,
  0x00, 0x00, 0x00, 0x00, 0x00, 0x00, 0x00, 0x00, 0xe8, 0xd4, 0xff, 0xff,
  0x00, 0x00, 0x00, 0x00, 0x00, 0x00, 0x00, 0x00, 0x00, 0x00, 0x00, 0x00,
  0xf8, 0xd4, 0xff, 0xff, 0x00, 0x00, 0x00, 0x00, 0x00, 0x00, 0x00, 0x00,
  0x00, 0x00, 0x00, 0x00, 0x08, 0xd5, 0xff, 0xff, 0x00, 0x00, 0x00, 0x00,
  0x00, 0x00, 0x00, 0x00, 0x00, 0x00, 0x00, 0x00, 0x18, 0xd5, 0xff, 0xff,
  0x00, 0x00, 0x00, 0x00, 0x00, 0x00, 0x00, 0x00, 0x00, 0x00, 0x00, 0x00,
  0x28, 0xd5, 0xff, 0xff, 0x00, 0x00, 0x00, 0x00, 0x00, 0x00, 0x00, 0x00,
  0x00, 0x00, 0x00, 0x00, 0x38, 0xd5, 0xff, 0xff, 0x00, 0x00, 0x00, 0x00,
  0x00, 0x00, 0x00, 0x00, 0x00, 0x00, 0x00, 0x00, 0x48, 0xd5, 0xff, 0xff,
  0x00, 0x00, 0x00, 0x00, 0x00, 0x00, 0x00, 0x00, 0x00, 0x00, 0x00, 0x00,
  0x58, 0xd5, 0xff, 0xff, 0x00, 0x00, 0x00, 0x00, 0x00, 0x00, 0x00, 0x00,
  0x00, 0x00, 0x00, 0x00, 0x68, 0xd5, 0xff, 0xff, 0x00, 0x00, 0x00, 0x00,
  0x00, 0x00, 0x00, 0x00, 0x00, 0x00, 0x00, 0x00, 0x78, 0xd5, 0xff, 0xff,
  0x00, 0x00, 0x00, 0x00, 0xe6, 0xdf, 0xff, 0xff, 0x04, 0x00, 0x00, 0x00,
  0x0c, 0x00, 0x00, 0x00, 0xff, 0xff, 0xff, 0xff, 0xff, 0xff, 0xff, 0xff,
  0xff, 0xff, 0xff, 0xff, 0x00, 0x00, 0x00, 0x00, 0x00, 0x00, 0x00, 0x00,
  0x06, 0xe0, 0xff, 0xff, 0x04, 0x00, 0x00, 0x00, 0x08, 0x00, 0x00, 0x00,
  0x00, 0x00, 0x00, 0x00, 0x00, 0x00, 0x00, 0x00, 0x00, 0x00, 0x00, 0x00,
  0x00, 0x00, 0x00, 0x00, 0x00, 0x00, 0x00, 0x00, 0x26, 0xe0, 0xff, 0xff,
  0x04, 0x00, 0x00, 0x00, 0x08, 0x00, 0x00, 0x00, 0xff, 0xff, 0xff, 0xff,
  0xff, 0xff, 0xff, 0xff, 0x00, 0x00, 0x00, 0x00, 0x00, 0x00, 0x00, 0x00,
  0x00, 0x00, 0x00, 0x00, 0x46, 0xe0, 0xff, 0xff, 0x04, 0x00, 0x00, 0x00,
  0x0c, 0x00, 0x00, 0x00, 0x00, 0x00, 0x00, 0x00, 0x00, 0x00, 0x00, 0x00,
  0x00, 0x00, 0x00, 0x00, 0x00, 0x00, 0x00, 0x00, 0x00, 0x00, 0x00, 0x00,
  0x66, 0xe0, 0xff, 0xff, 0x04, 0x00, 0x00, 0x00, 0x04, 0x00, 0x00, 0x00,
  0x01, 0x00, 0x00, 0x00, 0x76, 0xe0, 0xff, 0xff, 0x04, 0x00, 0x00, 0x00,
  0x3c, 0x00, 0x00, 0x00, 0xd3, 0xf7, 0xfa, 0xbd, 0xc2, 0x66, 0x69, 0x3f,
  0x4a, 0xa6, 0xd4, 0xbe, 0xf3, 0xee, 0x2c, 0xbf, 0x1a, 0xa7, 0x71, 0x3d,
  0x6e, 0x55, 0x35, 0x3f, 0xb1, 0xd1, 0x88, 0x3d, 0x4e, 0xde, 0x05, 0x3e,
  0xd8, 0xc9, 0x98, 0xbd, 0x3e, 0x3b, 0x0c, 0x3f, 0x05, 0xc9, 0x22, 0x3e,
  0x9c, 0x15, 0x9b, 0xbe, 0x3c, 0x25, 0xa3, 0xbe, 0xd8, 0x57, 0x81, 0x3e,
  0x5d, 0x15, 0x34, 0xbe, 0x00, 0x00, 0x00, 0x00, 0x00, 0x00, 0x00, 0x00,
  0xc6, 0xe0, 0xff, 0xff, 0x04, 0x00, 0x00, 0x00, 0x2c, 0x01, 0x00, 0x00,
  0xc1, 0x42, 0x8f, 0x3d, 0x10, 0x05, 0x3d, 0x3f, 0xb8, 0x47, 0x40, 0x3f,
  0x80, 0x6b, 0xb1, 0xbe, 0xdb, 0x91, 0x4f, 0xbd, 0x98, 0xff, 0xb1, 0x3d,
  0xec, 0xee, 0xa8, 0xbe, 0x71, 0xeb, 0xc6, 0xbe, 0x00, 0xbf, 0xdd, 0x3c,
  0xa9, 0xd3, 0xd0, 0xbe, 0xa3, 0x61, 0xe9, 0xbd, 0xb7, 0x54, 0x62, 0x3f,
  0x00, 0xc4, 0xac, 0x3e, 0x20, 0x8e, 0xf5, 0xbe, 0x84, 0xfc, 0x9b, 0x3e,
  0x84, 0xaa, 0x75, 0xbd, 0x84, 0x2c, 0xef, 0x3d, 0xa9, 0x83, 0x1d, 0x3f,
  0xd1, 0x26, 0xf6, 0xbe, 0x23, 0x2b, 0xad, 0x3e, 0x80, 0xe9, 0xd2, 0xbe,
  0x93, 0xd2, 0x2f, 0x3e, 0xa3, 0xf2, 0x7c, 0x3d, 0x6d, 0x6f, 0xca, 0xbe,
  0xeb, 0x17, 0xc9, 0x3e, 0x97, 0x51, 0xed, 0xbd, 0x2e, 0xcd, 0x04, 0xbc,
  0x6c, 0x18, 0xac, 0x3d, 0xf0, 0x23, 0xe7, 0xbe, 0xef, 0x22, 0x17, 0xbe,
  0x03, 0x10, 0xa1, 0xbe, 0x5d, 0x80, 0x17, 0x3d, 0x8c, 0xc8, 0x9c, 0xbe,
  0x93, 0x89, 0x5e, 0x3e, 0x84, 0x46, 0xe3, 0xbe, 0xd2, 0xea, 0x87, 0x3e,
  0xcf, 0x63, 0x27, 0xbe, 0x04, 0x25, 0x2b, 0xbf, 0x0c, 0x68, 0x92, 0xbc,
  0x62, 0xf9, 0xfa, 0xbe, 0x93, 0x8c, 0x30, 0xbe, 0xfe, 0x35, 0xea, 0xbe,
  0xad, 0xf1, 0x6d, 0xbd, 0x7d, 0xc4, 0x64, 0x3e, 0x5c, 0x9e, 0x23, 0xbf,
  0xee, 0x0a, 0x9a, 0xbd, 0xa2, 0xa7, 0x15, 0xbf, 0xa5, 0x2f, 0x85, 0xbe,
  0x5b, 0x57, 0x67, 0xbe, 0x9d, 0x2f, 0x26, 0xbe, 0x32, 0x95, 0x14, 0xbf,
  0xc2, 0x6c, 0x9f, 0x3b, 0x1a, 0xbd, 0xb3, 0xbd, 0xeb, 0x29, 0x99, 0x3d,
  0x55, 0xae, 0x8d, 0xbe, 0x63, 0xea, 0x32, 0xbe, 0xdc, 0x62, 0x8b, 0xbe,
  0x7a, 0x6f, 0x81, 0x3e, 0x03, 0xa5, 0xc0, 0xbc, 0x15, 0x16, 0x1d, 0x3e,
  0xab, 0xb5, 0xaa, 0xbd, 0x11, 0x1c, 0x8b, 0xbd, 0x8a, 0xe7, 0x9e, 0x3e,
  0x28, 0x03, 0xe2, 0x3e, 0xd5, 0xfc, 0xe4, 0xbd, 0x57, 0x71, 0x10, 0xbe,
  0x1c, 0xd2, 0x18, 0x3e, 0xac, 0x87, 0xb2, 0xbe, 0xfe, 0x56, 0xb2, 0x3e,
  0x13, 0x4e, 0x54, 0x3e, 0x6f, 0x37, 0xf1, 0xbd, 0x1c, 0x3b, 0x2e, 0x3e,
  0xe7, 0x3f, 0x12, 0x3e, 0xce, 0xa5, 0xed, 0xbe, 0xe7, 0x05, 0xc7, 0x3e,
  0x00, 0x00, 0x00, 0x00, 0x00, 0x00, 0x00, 0x00, 0x06, 0xe2, 0xff, 0xff,
  0x04, 0x00, 0x00, 0x00, 0x3c, 0x00, 0x00, 0x00, 0x99, 0xd2, 0x54, 0xbe,
  0xd6, 0x6f, 0xab, 0x3e, 0x40, 0x33, 0xf8, 0xbe, 0x02, 0xfe, 0xde, 0xbe,
  0xdd, 0x60, 0xad, 0xbe, 0x0b, 0xfd, 0x14, 0xb9, 0x43, 0x6f, 0xdf, 0x3d,
  0x10, 0x6c, 0xc1, 0x3d, 0x46, 0xab, 0x6b, 0x3d, 0x81, 0xe0, 0x91, 0x3b,
  0x3f, 0xbb, 0x58, 0x3d, 0x60, 0xa7, 0x28, 0xbd, 0x16, 0xd1, 0xd2, 0xbc,
  0x14, 0x97, 0x99, 0x3b, 0xc1, 0xd4, 0x60, 0xbd, 0x00, 0x00, 0x00, 0x00,
  0x00, 0x00, 0x00, 0x00, 0x56, 0xe2, 0xff, 0xff, 0x04, 0x00, 0x00, 0x00,
  0x3c, 0x00, 0x00, 0x00, 0x99, 0xd2, 0x54, 0xbe, 0xd6, 0x6f, 0xab, 0x3e,
  0x40, 0x33, 0xf8, 0xbe, 0x02, 0xfe, 0xde, 0xbe, 0xdd, 0x60, 0xad, 0xbe,
  0x0b, 0xfd, 0x14, 0xb9, 0x43, 0x6f, 0xdf, 0x3d, 0x10, 0x6c, 0xc1, 0x3d,
  0x46, 0xab, 0x6b, 0x3d, 0x81, 0xe0, 0x91, 0x3b, 0x9e, 0xb7, 0xb8, 0x3b,
  0x27, 0x94, 0x3a, 0xbd, 0xe5, 0x99, 0xac, 0xbc, 0x06, 0x1c, 0x76, 0x3c,
  0xa0, 0x88, 0xb6, 0xbc, 0x00, 0x00, 0x00, 0x00, 0x00, 0x00, 0x00, 0x00,
  0xa6, 0xe2, 0xff, 0xff, 0x04, 0x00, 0x00, 0x00, 0x04, 0x00, 0x00, 0x00,
  0x00, 0x00, 0x80, 0x3f, 0xb6, 0xe2, 0xff, 0xff, 0x04, 0x00, 0x00, 0x00,
  0x04, 0x00, 0x00, 0x00, 0x01, 0x00, 0x00, 0x00, 0xc6, 0xe2, 0xff, 0xff,
  0x04, 0x00, 0x00, 0x00, 0x04, 0x00, 0x00, 0x00, 0x00, 0x00, 0x00, 0x00,
  0x00, 0x00, 0x00, 0x00, 0x00, 0x00, 0x00, 0x00, 0x78, 0xd8, 0xff, 0xff,
  0x00, 0x00, 0x00, 0x00, 0x00, 0x00, 0x00, 0x00, 0x00, 0x00, 0x00, 0x00,
  0x88, 0xd8, 0xff, 0xff, 0x00, 0x00, 0x00, 0x00, 0x00, 0x00, 0x00, 0x00,
  0x00, 0x00, 0x00, 0x00, 0x98, 0xd8, 0xff, 0xff, 0x00, 0x00, 0x00, 0x00,
  0x00, 0x00, 0x00, 0x00, 0x00, 0x00, 0x00, 0x00, 0xa8, 0xd8, 0xff, 0xff,
  0x00, 0x00, 0x00, 0x00, 0x00, 0x00, 0x00, 0x00, 0x00, 0x00, 0x00, 0x00,
  0xb8, 0xd8, 0xff, 0xff, 0x00, 0x00, 0x00, 0x00, 0x00, 0x00, 0x00, 0x00,
  0x00, 0x00, 0x00, 0x00, 0xc8, 0xd8, 0xff, 0xff, 0x00, 0x00, 0x00, 0x00,
  0x00, 0x00, 0x00, 0x00, 0x00, 0x00, 0x00, 0x00, 0xd8, 0xd8, 0xff, 0xff,
  0x00, 0x00, 0x00, 0x00, 0x00, 0x00, 0x00, 0x00, 0x00, 0x00, 0x00, 0x00,
  0xe8, 0xd8, 0xff, 0xff, 0x00, 0x00, 0x00, 0x00, 0x00, 0x00, 0x00, 0x00,
  0x00, 0x00, 0x00, 0x00, 0xf8, 0xd8, 0xff, 0xff, 0x00, 0x00, 0x00, 0x00,
  0x00, 0x00, 0x00, 0x00, 0x00, 0x00, 0x00, 0x00, 0x08, 0xd9, 0xff, 0xff,
  0x00, 0x00, 0x00, 0x00, 0x00, 0x00, 0x00, 0x00, 0x00, 0x00, 0x00, 0x00,
  0x18, 0xd9, 0xff, 0xff, 0x00, 0x00, 0x00, 0x00, 0x00, 0x00, 0x00, 0x00,
  0x00, 0x00, 0x00, 0x00, 0x28, 0xd9, 0xff, 0xff, 0x00, 0x00, 0x00, 0x00,
  0x00, 0x00, 0x00, 0x00, 0x00, 0x00, 0x00, 0x00, 0x38, 0xd9, 0xff, 0xff,
  0x00, 0x00, 0x00, 0x00, 0x00, 0x00, 0x00, 0x00, 0x00, 0x00, 0x00, 0x00,
  0x48, 0xd9, 0xff, 0xff, 0x00, 0x00, 0x00, 0x00, 0x00, 0x00, 0x00, 0x00,
  0x00, 0x00, 0x00, 0x00, 0x58, 0xd9, 0xff, 0xff, 0x00, 0x00, 0x00, 0x00,
  0x00, 0x00, 0x00, 0x00, 0x00, 0x00, 0x00, 0x00, 0x68, 0xd9, 0xff, 0xff,
  0x00, 0x00, 0x00, 0x00, 0x00, 0x00, 0x00, 0x00, 0x00, 0x00, 0x00, 0x00,
  0x78, 0xd9, 0xff, 0xff, 0x00, 0x00, 0x00, 0x00, 0x00, 0x00, 0x00, 0x00,
  0x00, 0x00, 0x00, 0x00, 0x88, 0xd9, 0xff, 0xff, 0x00, 0x00, 0x00, 0x00,
  0x00, 0x00, 0x00, 0x00, 0x00, 0x00, 0x00, 0x00, 0x98, 0xd9, 0xff, 0xff,
  0x00, 0x00, 0x00, 0x00, 0x00, 0x00, 0x00, 0x00, 0x00, 0x00, 0x00, 0x00,
  0xa8, 0xd9, 0xff, 0xff, 0x00, 0x00, 0x00, 0x00, 0x00, 0x00, 0x00, 0x00,
  0x00, 0x00, 0x00, 0x00, 0xb8, 0xd9, 0xff, 0xff, 0x00, 0x00, 0x00, 0x00,
  0x00, 0x00, 0x00, 0x00, 0x00, 0x00, 0x00, 0x00, 0xc8, 0xd9, 0xff, 0xff,
  0x00, 0x00, 0x00, 0x00, 0x00, 0x00, 0x00, 0x00, 0x00, 0x00, 0x00, 0x00,
  0xd8, 0xd9, 0xff, 0xff, 0x00, 0x00, 0x00, 0x00, 0x00, 0x00, 0x00, 0x00,
  0x00, 0x00, 0x00, 0x00, 0xe8, 0xd9, 0xff, 0xff, 0x00, 0x00, 0x00, 0x00,
  0x00, 0x00, 0x00, 0x00, 0x00, 0x00, 0x00, 0x00, 0xf8, 0xd9, 0xff, 0xff,
  0x00, 0x00, 0x00, 0x00, 0x00, 0x00, 0x00, 0x00, 0x00, 0x00, 0x00, 0x00,
  0x08, 0xda, 0xff, 0xff, 0x00, 0x00, 0x00, 0x00, 0x00, 0x00, 0x00, 0x00,
  0x00, 0x00, 0x00, 0x00, 0x18, 0xda, 0xff, 0xff, 0x00, 0x00, 0x00, 0x00,
  0x00, 0x00, 0x00, 0x00, 0x00, 0x00, 0x00, 0x00, 0x28, 0xda, 0xff, 0xff,
  0x00, 0x00, 0x00, 0x00, 0x00, 0x00, 0x00, 0x00, 0x00, 0x00, 0x00, 0x00,
  0x38, 0xda, 0xff, 0xff, 0x00, 0x00, 0x00, 0x00, 0x00, 0x00, 0x00, 0x00,
  0x00, 0x00, 0x00, 0x00, 0x48, 0xda, 0xff, 0xff, 0x00, 0x00, 0x00, 0x00,
  0x00, 0x00, 0x00, 0x00, 0x00, 0x00, 0x00, 0x00, 0x58, 0xda, 0xff, 0xff,
  0x00, 0x00, 0x00, 0x00, 0x00, 0x00, 0x00, 0x00, 0x00, 0x00, 0x00, 0x00,
  0x68, 0xda, 0xff, 0xff, 0x00, 0x00, 0x00, 0x00, 0x00, 0x00, 0x00, 0x00,
  0x00, 0x00, 0x00, 0x00, 0x78, 0xda, 0xff, 0xff, 0x00, 0x00, 0x00, 0x00,
  0xe6, 0xe4, 0xff, 0xff, 0x04, 0x00, 0x00, 0x00, 0x0c, 0x00, 0x00, 0x00,
  0x01, 0x00, 0x00, 0x00, 0x01, 0x00, 0x00, 0x00, 0x01, 0x00, 0x00, 0x00,
  0x00, 0x00, 0x00, 0x00, 0x00, 0x00, 0x00, 0x00, 0x06, 0xe5, 0xff, 0xff,
  0x04, 0x00, 0x00, 0x00, 0x0c, 0x00, 0x00, 0x00, 0x00, 0x00, 0x00, 0x00,
  0xff, 0xff, 0xff, 0xff, 0xff, 0xff, 0xff, 0xff, 0x00, 0x00, 0x00, 0x00,
  0x00, 0x00, 0x00, 0x00, 0x26, 0xe5, 0xff, 0xff, 0x04, 0x00, 0x00, 0x00,
  0x0c, 0x00, 0x00, 0x00, 0xff, 0xff, 0xff, 0xff, 0x00, 0x00, 0x00, 0x00,
  0x00, 0x00, 0x00, 0x00, 0x00, 0x00, 0x00, 0x00, 0x00, 0x00, 0x00, 0x00,
  0x46, 0xe5, 0xff, 0xff, 0x04, 0x00, 0x00, 0x00, 0x04, 0x00, 0x00, 0x00,
  0x01, 0x00, 0x00, 0x00, 0x56, 0xe5, 0xff, 0xff, 0x04, 0x00, 0x00, 0x00,
  0x04, 0x00, 0x00, 0x00, 0x00, 0x00, 0x00, 0x00, 0x66, 0xe5, 0xff, 0xff,
  0x04, 0x00, 0x00, 0x00, 0x14, 0x00, 0x00, 0x00, 0xa5, 0xff, 0x6b, 0x3f,
  0xea, 0xd3, 0x15, 0x3e, 0xa3, 0xa5, 0x9e, 0xbe, 0xdb, 0x5d, 0x86, 0x3f,
  0x9f, 0xd8, 0x3b, 0xbf, 0x86, 0xe5, 0xff, 0xff, 0x04, 0x00, 0x00, 0x00,
  0x3c, 0x00, 0x00, 0x00, 0x99, 0xd2, 0x54, 0xbe, 0xd6, 0x6f, 0xab, 0x3e,
  0x40, 0x33, 0xf8, 0xbe, 0x02, 0xfe, 0xde, 0xbe, 0xdd, 0x60, 0xad, 0xbe,
  0x0b, 0xfd, 0x14, 0xb9, 0x43, 0x6f, 0xdf, 0x3d, 0x10, 0x6c, 0xc1, 0x3d,
  0x46, 0xab, 0x6b, 0x3d, 0x81, 0xe0, 0x91, 0x3b, 0x3f, 0xbb, 0x58, 0x3d,
  0x60, 0xa7, 0x28, 0xbd, 0x16, 0xd1, 0xd2, 0xbc, 0x14, 0x97, 0x99, 0x3b,
  0xc1, 0xd4, 0x60, 0xbd, 0x00, 0x00, 0x00, 0x00, 0x00, 0x00, 0x00, 0x00,
  0xd6, 0xe5, 0xff, 0xff, 0x04, 0x00, 0x00, 0x00, 0x3c, 0x00, 0x00, 0x00,
  0x99, 0xd2, 0x54, 0xbe, 0xd6, 0x6f, 0xab, 0x3e, 0x40, 0x33, 0xf8, 0xbe,
  0x02, 0xfe, 0xde, 0xbe, 0xdd, 0x60, 0xad, 0xbe, 0x0b, 0xfd, 0x14, 0xb9,
  0x43, 0x6f, 0xdf, 0x3d, 0x10, 0x6c, 0xc1, 0x3d, 0x46, 0xab, 0x6b, 0x3d,
  0x81, 0xe0, 0x91, 0x3b, 0x9e, 0xb7, 0xb8, 0x3b, 0x27, 0x94, 0x3a, 0xbd,
  0xe5, 0x99, 0xac, 0xbc, 0x06, 0x1c, 0x76, 0x3c, 0xa0, 0x88, 0xb6, 0xbc,
  0x00, 0x00, 0x00, 0x00, 0x00, 0x00, 0x00, 0x00, 0x26, 0xe6, 0xff, 0xff,
  0x04, 0x00, 0x00, 0x00, 0x04, 0x00, 0x00, 0x00, 0x00, 0x00, 0x00, 0x00,
  0x36, 0xe6, 0xff, 0xff, 0x04, 0x00, 0x00, 0x00, 0x04, 0x00, 0x00, 0x00,
  0x00, 0x00, 0x00, 0x00, 0x46, 0xe6, 0xff, 0xff, 0x04, 0x00, 0x00, 0x00,
  0x08, 0x00, 0x00, 0x00, 0x01, 0x00, 0x00, 0x00, 0x05, 0x00, 0x00, 0x00,
  0x00, 0x00, 0x00, 0x00, 0x00, 0x00, 0x00, 0x00, 0x00, 0x00, 0x00, 0x00,
  0x66, 0xe6, 0xff, 0xff, 0x04, 0x00, 0x00, 0x00, 0x0c, 0x00, 0x00, 0x00,
  0x01, 0x00, 0x00, 0x00, 0x00, 0x00, 0x00, 0x00, 0x02, 0x00, 0x00, 0x00,
  0x00, 0x00, 0x00, 0x00, 0x00, 0x00, 0x00, 0x00, 0x86, 0xe6, 0xff, 0xff,
  0x04, 0x00, 0x00, 0x00, 0x04, 0x00, 0x00, 0x00, 0x00, 0x00, 0x80, 0x3f,
  0x96, 0xe6, 0xff, 0xff, 0x04, 0x00, 0x00, 0x00, 0x04, 0x00, 0x00, 0x00,
  0x05, 0x00, 0x00, 0x00, 0xa6, 0xe6, 0xff, 0xff, 0x04, 0x00, 0x00, 0x00,
  0x04, 0x00, 0x00, 0x00, 0x33, 0x9e, 0x86, 0x3c, 0x00, 0x00, 0x00, 0x00,
  0x00, 0x00, 0x00, 0x00, 0x58, 0xdc, 0xff, 0xff, 0x00, 0x00, 0x00, 0x00,
  0x00, 0x00, 0x00, 0x00, 0x00, 0x00, 0x00, 0x00, 0x68, 0xdc, 0xff, 0xff,
  0x00, 0x00, 0x00, 0x00, 0x00, 0x00, 0x00, 0x00, 0x00, 0x00, 0x00, 0x00,
  0x0f, 0x00, 0x00, 0x00, 0x4d, 0x4c, 0x49, 0x52, 0x20, 0x43, 0x6f, 0x6e,
  0x76, 0x65, 0x72, 0x74, 0x65, 0x64, 0x2e, 0x00, 0x04, 0x00, 0x00, 0x00,
  0x0c, 0x16, 0x00, 0x00, 0xe8, 0x15, 0x00, 0x00, 0xe4, 0x13, 0x00, 0x00,
  0x04, 0x00, 0x00, 0x00, 0x12, 0xea, 0xff, 0xff, 0x9c, 0x05, 0x00, 0x00,
  0x7c, 0x05, 0x00, 0x00, 0x5c, 0x05, 0x00, 0x00, 0x1c, 0x00, 0x00, 0x00,
  0x04, 0x00, 0x00, 0x00, 0x0e, 0x00, 0x00, 0x00, 0x74, 0x66, 0x6c, 0x2e,
  0x77, 0x68, 0x69, 0x6c, 0x65, 0x5f, 0x62, 0x6f, 0x64, 0x79, 0x00, 0x00,
  0x1b, 0x00, 0x00, 0x00, 0x08, 0x05, 0x00, 0x00, 0xd0, 0x04, 0x00, 0x00,
  0x90, 0x04, 0x00, 0x00, 0x5c, 0x04, 0x00, 0x00, 0x24, 0x04, 0x00, 0x00,
  0xe4, 0x03, 0x00, 0x00, 0xb0, 0x03, 0x00, 0x00, 0x8c, 0x03, 0x00, 0x00,
  0x58, 0x03, 0x00, 0x00, 0x24, 0x03, 0x00, 0x00, 0xf0, 0x02, 0x00, 0x00,
  0xcc, 0x02, 0x00, 0x00, 0x98, 0x02, 0x00, 0x00, 0x64, 0x02, 0x00, 0x00,
  0x40, 0x02, 0x00, 0x00, 0x0c, 0x02, 0x00, 0x00, 0xd8, 0x01, 0x00, 0x00,
  0xb0, 0x01, 0x00, 0x00, 0x7c, 0x01, 0x00, 0x00, 0x50, 0x01, 0x00, 0x00,
  0x28, 0x01, 0x00, 0x00, 0xf4, 0x00, 0x00, 0x00, 0xc8, 0x00, 0x00, 0x00,
  0x94, 0x00, 0x00, 0x00, 0x5c, 0x00, 0x00, 0x00, 0x28, 0x00, 0x00, 0x00,
  0x04, 0x00, 0x00, 0x00, 0xea, 0xe7, 0xff, 0xff, 0x13, 0x00, 0x00, 0x00,
  0x10, 0x00, 0x00, 0x00, 0x04, 0x00, 0x00, 0x00, 0x01, 0x00, 0x00, 0x00,
  0x30, 0x00, 0x00, 0x00, 0x01, 0x00, 0x00, 0x00, 0x2e, 0x00, 0x00, 0x00,
  0xa6, 0xe8, 0xff, 0xff, 0x00, 0x00, 0x00, 0x0b, 0x0a, 0x00, 0x00, 0x00,
  0x18, 0x00, 0x00, 0x00, 0x0c, 0x00, 0x00, 0x00, 0x04, 0x00, 0x00, 0x00,
  0x74, 0xdd, 0xff, 0xff, 0x01, 0x00, 0x00, 0x00, 0x2f, 0x00, 0x00, 0x00,
  0x02, 0x00, 0x00, 0x00, 0x00, 0x00, 0x00, 0x00, 0x0d, 0x00, 0x00, 0x00,
  0xd6, 0xe8, 0xff, 0xff, 0x00, 0x00, 0x00, 0x0a, 0x06, 0x00, 0x00, 0x00,
  0x18, 0x00, 0x00, 0x00, 0x0c, 0x00, 0x00, 0x00, 0x04, 0x00, 0x00, 0x00,
  0xa4, 0xdd, 0xff, 0xff, 0x01, 0x00, 0x00, 0x00, 0x2e, 0x00, 0x00, 0x00,
  0x03, 0x00, 0x00, 0x00, 0x29, 0x00, 0x00, 0x00, 0x2d, 0x00, 0x00, 0x00,
  0x2c, 0x00, 0x00, 0x00, 0x0a, 0xe9, 0xff, 0xff, 0x00, 0x00, 0x00, 0x34,
  0x12, 0x00, 0x00, 0x00, 0x18, 0x00, 0x00, 0x00, 0x0c, 0x00, 0x00, 0x00,
  0x04, 0x00, 0x00, 0x00, 0xd8, 0xdd, 0xff, 0xff, 0x01, 0x00, 0x00, 0x00,
  0x2d, 0x00, 0x00, 0x00, 0x02, 0x00, 0x00, 0x00, 0x26, 0x00, 0x00, 0x00,
  0x06, 0x00, 0x00, 0x00, 0x9e, 0xe8, 0xff, 0xff, 0x11, 0x00, 0x00, 0x00,
  0x10, 0x00, 0x00, 0x00, 0x04, 0x00, 0x00, 0x00, 0x01, 0x00, 0x00, 0x00,
  0x2c, 0x00, 0x00, 0x00, 0x03, 0x00, 0x00, 0x00, 0x02, 0x00, 0x00, 0x00,
  0x2b, 0x00, 0x00, 0x00, 0x11, 0x00, 0x00, 0x00, 0x62, 0xe9, 0xff, 0xff,
  0x00, 0x00, 0x00, 0x0a, 0x06, 0x00, 0x00, 0x00, 0x18, 0x00, 0x00, 0x00,
  0x0c, 0x00, 0x00, 0x00, 0x04, 0x00, 0x00, 0x00, 0x30, 0xde, 0xff, 0xff,
  0x01, 0x00, 0x00, 0x00, 0x2b, 0x00, 0x00, 0x00, 0x02, 0x00, 0x00, 0x00,
  0x2a, 0x00, 0x00, 0x00, 0x10, 0x00, 0x00, 0x00, 0xf6, 0xe8, 0xff, 0xff,
  0x05, 0x00, 0x00, 0x00, 0x10, 0x00, 0x00, 0x00, 0x04, 0x00, 0x00, 0x00,
  0x01, 0x00, 0x00, 0x00, 0x2a, 0x00, 0x00, 0x00, 0x02, 0x00, 0x00, 0x00,
  0x12, 0x00, 0x00, 0x00, 0x07, 0x00, 0x00, 0x00, 0x1a, 0xe9, 0xff, 0xff,
  0x11, 0x00, 0x00, 0x00, 0x10, 0x00, 0x00, 0x00, 0x04, 0x00, 0x00, 0x00,
  0x01, 0x00, 0x00, 0x00, 0x29, 0x00, 0x00, 0x00, 0x03, 0x00, 0x00, 0x00,
  0x02, 0x00, 0x00, 0x00, 0x0e, 0x00, 0x00, 0x00, 0x28, 0x00, 0x00, 0x00,
  0xde, 0xe9, 0xff, 0xff, 0x00, 0x00, 0x00, 0x0a, 0x06, 0x00, 0x00, 0x00,
  0x18, 0x00, 0x00, 0x00, 0x0c, 0x00, 0x00, 0x00, 0x04, 0x00, 0x00, 0x00,
  0xac, 0xde, 0xff, 0xff, 0x01, 0x00, 0x00, 0x00, 0x28, 0x00, 0x00, 0x00,
  0x02, 0x00, 0x00, 0x00, 0x27, 0x00, 0x00, 0x00, 0x0f, 0x00, 0x00, 0x00,
  0x72, 0xe9, 0xff, 0xff, 0x05, 0x00, 0x00, 0x00, 0x10, 0x00, 0x00, 0x00,
  0x04, 0x00, 0x00, 0x00, 0x01, 0x00, 0x00, 0x00, 0x27, 0x00, 0x00, 0x00,
  0x02, 0x00, 0x00, 0x00, 0x01, 0x00, 0x00, 0x00, 0x07, 0x00, 0x00, 0x00,
  0x32, 0xea, 0xff, 0xff, 0x00, 0x00, 0x00, 0x0b, 0x0a, 0x00, 0x00, 0x00,
  0x18, 0x00, 0x00, 0x00, 0x0c, 0x00, 0x00, 0x00, 0x04, 0x00, 0x00, 0x00,
  0x00, 0xdf, 0xff, 0xff, 0x01, 0x00, 0x00, 0x00, 0x26, 0x00, 0x00, 0x00,
  0x02, 0x00, 0x00, 0x00, 0x1e, 0x00, 0x00, 0x00, 0x25, 0x00, 0x00, 0x00,
  0x62, 0xea, 0xff, 0xff, 0x00, 0x00, 0x00, 0x15, 0x0e, 0x00, 0x00, 0x00,
  0x18, 0x00, 0x00, 0x00, 0x0c, 0x00, 0x00, 0x00, 0x04, 0x00, 0x00, 0x00,
  0x30, 0xdf, 0xff, 0xff, 0x01, 0x00, 0x00, 0x00, 0x25, 0x00, 0x00, 0x00,
  0x02, 0x00, 0x00, 0x00, 0x1f, 0x00, 0x00, 0x00, 0x24, 0x00, 0x00, 0x00,
  0xf6, 0xe9, 0xff, 0xff, 0x10, 0x00, 0x00, 0x00, 0x10, 0x00, 0x00, 0x00,
  0x04, 0x00, 0x00, 0x00, 0x01, 0x00, 0x00, 0x00, 0x24, 0x00, 0x00, 0x00,
  0x01, 0x00, 0x00, 0x00, 0x23, 0x00, 0x00, 0x00, 0xb2, 0xea, 0xff, 0xff,
  0x00, 0x00, 0x00, 0x0b, 0x0a, 0x00, 0x00, 0x00, 0x18, 0x00, 0x00, 0x00,
  0x0c, 0x00, 0x00, 0x00, 0x04, 0x00, 0x00, 0x00, 0x80, 0xdf, 0xff, 0xff,
  0x01, 0x00, 0x00, 0x00, 0x23, 0x00, 0x00, 0x00, 0x02, 0x00, 0x00, 0x00,
  0x1b, 0x00, 0x00, 0x00, 0x22, 0x00, 0x00, 0x00, 0xe2, 0xea, 0xff, 0xff,
  0x00, 0x00, 0x00, 0x15, 0x0e, 0x00, 0x00, 0x00, 0x18, 0x00, 0x00, 0x00,
  0x0c, 0x00, 0x00, 0x00, 0x04, 0x00, 0x00, 0x00, 0xb0, 0xdf, 0xff, 0xff,
  0x01, 0x00, 0x00, 0x00, 0x22, 0x00, 0x00, 0x00, 0x02, 0x00, 0x00, 0x00,
  0x21, 0x00, 0x00, 0x00, 0x16, 0x00, 0x00, 0x00, 0x76, 0xea, 0xff, 0xff,
  0x0d, 0x00, 0x00, 0x00, 0x10, 0x00, 0x00, 0x00, 0x04, 0x00, 0x00, 0x00,
  0x01, 0x00, 0x00, 0x00, 0x21, 0x00, 0x00, 0x00, 0x01, 0x00, 0x00, 0x00,
  0x20, 0x00, 0x00, 0x00, 0x32, 0xeb, 0xff, 0xff, 0x00, 0x00, 0x00, 0x0b,
  0x0a, 0x00, 0x00, 0x00, 0x18, 0x00, 0x00, 0x00, 0x0c, 0x00, 0x00, 0x00,
  0x04, 0x00, 0x00, 0x00, 0x00, 0xe0, 0xff, 0xff, 0x01, 0x00, 0x00, 0x00,
  0x20, 0x00, 0x00, 0x00, 0x02, 0x00, 0x00, 0x00, 0x1a, 0x00, 0x00, 0x00,
  0x15, 0x00, 0x00, 0x00, 0x62, 0xeb, 0xff, 0xff, 0x00, 0x00, 0x00, 0x1c,
  0x0f, 0x00, 0x00, 0x00, 0x18, 0x00, 0x00, 0x00, 0x0c, 0x00, 0x00, 0x00,
  0x04, 0x00, 0x00, 0x00, 0x30, 0xe0, 0xff, 0xff, 0x01, 0x00, 0x00, 0x00,
  0x1f, 0x00, 0x00, 0x00, 0x02, 0x00, 0x00, 0x00, 0x08, 0x00, 0x00, 0x00,
  0x1d, 0x00, 0x00, 0x00, 0x92, 0xeb, 0xff, 0xff, 0x00, 0x00, 0x00, 0x15,
  0x0e, 0x00, 0x00, 0x00, 0x18, 0x00, 0x00, 0x00, 0x0c, 0x00, 0x00, 0x00,
  0x04, 0x00, 0x00, 0x00, 0x60, 0xe0, 0xff, 0xff, 0x01, 0x00, 0x00, 0x00,
  0x1e, 0x00, 0x00, 0x00, 0x02, 0x00, 0x00, 0x00, 0x1d, 0x00, 0x00, 0x00,
  0x03, 0x00, 0x00, 0x00, 0x26, 0xeb, 0xff, 0xff, 0x0d, 0x00, 0x00, 0x00,
  0x10, 0x00, 0x00, 0x00, 0x04, 0x00, 0x00, 0x00, 0x01, 0x00, 0x00, 0x00,
  0x1d, 0x00, 0x00, 0x00, 0x01, 0x00, 0x00, 0x00, 0x1c, 0x00, 0x00, 0x00,
  0xe2, 0xeb, 0xff, 0xff, 0x00, 0x00, 0x00, 0x0b, 0x0a, 0x00, 0x00, 0x00,
  0x18, 0x00, 0x00, 0x00, 0x0c, 0x00, 0x00, 0x00, 0x04, 0x00, 0x00, 0x00,
  0xb0, 0xe0, 0xff, 0xff, 0x01, 0x00, 0x00, 0x00, 0x1c, 0x00, 0x00, 0x00,
  0x02, 0x00, 0x00, 0x00, 0x19, 0x00, 0x00, 0x00, 0x14, 0x00, 0x00, 0x00,
  0x12, 0xec, 0xff, 0xff, 0x00, 0x00, 0x00, 0x23, 0x0b, 0x00, 0x00, 0x00,
  0x24, 0x00, 0x00, 0x00, 0x10, 0x00, 0x00, 0x00, 0x04, 0x00, 0x00, 0x00,
  0x46, 0xeb, 0xff, 0xff, 0x03, 0x00, 0x00, 0x00, 0x03, 0x00, 0x00, 0x00,
  0x19, 0x00, 0x00, 0x00, 0x1a, 0x00, 0x00, 0x00, 0x1b, 0x00, 0x00, 0x00,
  0x02, 0x00, 0x00, 0x00, 0x0d, 0x00, 0x00, 0x00, 0x18, 0x00, 0x00, 0x00,
  0x4e, 0xec, 0xff, 0xff, 0x00, 0x00, 0x00, 0x08, 0x08, 0x00, 0x00, 0x00,
  0x18, 0x00, 0x00, 0x00, 0x0c, 0x00, 0x00, 0x00, 0x04, 0x00, 0x00, 0x00,
  0x1c, 0xe1, 0xff, 0xff, 0x01, 0x00, 0x00, 0x00, 0x18, 0x00, 0x00, 0x00,
  0x03, 0x00, 0x00, 0x00, 0x17, 0x00, 0x00, 0x00, 0x0c, 0x00, 0x00, 0x00,
  0x09, 0x00, 0x00, 0x00, 0x82, 0xec, 0xff, 0xff, 0x00, 0x00, 0x00, 0x17,
  0x0c, 0x00, 0x00, 0x00, 0x18, 0x00, 0x00, 0x00, 0x0c, 0x00, 0x00, 0x00,
  0x04, 0x00, 0x00, 0x00, 0x50, 0xe1, 0xff, 0xff, 0x01, 0x00, 0x00, 0x00,
  0x17, 0x00, 0x00, 0x00, 0x02, 0x00, 0x00, 0x00, 0x05, 0x00, 0x00, 0x00,
  0x01, 0x00, 0x00, 0x00, 0xb2, 0xec, 0xff, 0xff, 0x00, 0x00, 0x00, 0x23,
  0x0b, 0x00, 0x00, 0x00, 0x24, 0x00, 0x00, 0x00, 0x10, 0x00, 0x00, 0x00,
  0x04, 0x00, 0x00, 0x00, 0xe6, 0xeb, 0xff, 0xff, 0x03, 0x00, 0x00, 0x00,
  0x03, 0x00, 0x00, 0x00, 0x14, 0x00, 0x00, 0x00, 0x15, 0x00, 0x00, 0x00,
  0x16, 0x00, 0x00, 0x00, 0x02, 0x00, 0x00, 0x00, 0x0d, 0x00, 0x00, 0x00,
  0x13, 0x00, 0x00, 0x00, 0xee, 0xec, 0xff, 0xff, 0x00, 0x00, 0x00, 0x08,
  0x08, 0x00, 0x00, 0x00, 0x18, 0x00, 0x00, 0x00, 0x0c, 0x00, 0x00, 0x00,
  0x04, 0x00, 0x00, 0x00, 0xbc, 0xe1, 0xff, 0xff, 0x01, 0x00, 0x00, 0x00,
  0x13, 0x00, 0x00, 0x00, 0x03, 0x00, 0x00, 0x00, 0x03, 0x00, 0x00, 0x00,
  0x0b, 0x00, 0x00, 0x00, 0x0a, 0x00, 0x00, 0x00, 0x22, 0xed, 0xff, 0xff,
  0x00, 0x00, 0x00, 0x0b, 0x0a, 0x00, 0x00, 0x00, 0x18, 0x00, 0x00, 0x00,
  0x0c, 0x00, 0x00, 0x00, 0x04, 0x00, 0x00, 0x00, 0xf0, 0xe1, 0xff, 0xff,
  0x01, 0x00, 0x00, 0x00, 0x12, 0x00, 0x00, 0x00, 0x02, 0x00, 0x00, 0x00,
  0x01, 0x00, 0x00, 0x00, 0x0d, 0x00, 0x00, 0x00, 0x06, 0x00, 0x00, 0x00,
  0x2f, 0x00, 0x00, 0x00, 0x12, 0x00, 0x00, 0x00, 0x30, 0x00, 0x00, 0x00,
  0x26, 0x00, 0x00, 0x00, 0x04, 0x00, 0x00, 0x00, 0x05, 0x00, 0x00, 0x00,
  0x06, 0x00, 0x00, 0x00, 0x00, 0x00, 0x00, 0x00, 0x01, 0x00, 0x00, 0x00,
  0x02, 0x00, 0x00, 0x00, 0x03, 0x00, 0x00, 0x00, 0x04, 0x00, 0x00, 0x00,
  0x05, 0x00, 0x00, 0x00, 0x31, 0x00, 0x00, 0x00, 0x14, 0x0e, 0x00, 0x00,
  0xec, 0x0d, 0x00, 0x00, 0xa0, 0x0d, 0x00, 0x00, 0x5c, 0x0d, 0x00, 0x00,
  0x34, 0x0d, 0x00, 0x00, 0xe8, 0x0c, 0x00, 0x00, 0xb8, 0x0c, 0x00, 0x00,
  0x7c, 0x0c, 0x00, 0x00, 0x50, 0x0c, 0x00, 0x00, 0x18, 0x0c, 0x00, 0x00,
  0xe0, 0x0b, 0x00, 0x00, 0xa4, 0x0b, 0x00, 0x00, 0x68, 0x0b, 0x00, 0x00,
  0x1c, 0x0b, 0x00, 0x00, 0xc4, 0x0a, 0x00, 0x00, 0x6c, 0x0a, 0x00, 0x00,
  0x14, 0x0a, 0x00, 0x00, 0xbc, 0x09, 0x00, 0x00, 0x90, 0x09, 0x00, 0x00,
  0x44, 0x09, 0x00, 0x00, 0xf8, 0x08, 0x00, 0x00, 0xac, 0x08, 0x00, 0x00,
  0x60, 0x08, 0x00, 0x00, 0xf8, 0x07, 0x00, 0x00, 0xac, 0x07, 0x00, 0x00,
  0x64, 0x07, 0x00, 0x00, 0x18, 0x07, 0x00, 0x00, 0xcc, 0x06, 0x00, 0x00,
  0x84, 0x06, 0x00, 0x00, 0x38, 0x06, 0x00, 0x00, 0xf0, 0x05, 0x00, 0x00,
  0xa8, 0x05, 0x00, 0x00, 0x60, 0x05, 0x00, 0x00, 0x14, 0x05, 0x00, 0x00,
  0xcc, 0x04, 0x00, 0x00, 0x84, 0x04, 0x00, 0x00, 0x3c, 0x04, 0x00, 0x00,
  0xf4, 0x03, 0x00, 0x00, 0xac, 0x03, 0x00, 0x00, 0x54, 0x03, 0x00, 0x00,
  0xfc, 0x02, 0x00, 0x00, 0x8c, 0x02, 0x00, 0x00, 0x34, 0x02, 0x00, 0x00,
  0xdc, 0x01, 0x00, 0x00, 0x68, 0x01, 0x00, 0x00, 0xf4, 0x00, 0x00, 0x00,
  0x80, 0x00, 0x00, 0x00, 0x54, 0x00, 0x00, 0x00, 0x04, 0x00, 0x00, 0x00,
  0x14, 0xe4, 0xff, 0xff, 0x38, 0x00, 0x00, 0x00, 0x5c, 0x00, 0x00, 0x00,
  0x20, 0x00, 0x00, 0x00, 0x18, 0x00, 0x00, 0x00, 0x04, 0x00, 0x00, 0x00,
  0x03, 0x00, 0x00, 0x00, 0xff, 0xff, 0xff, 0xff, 0xff, 0xff, 0xff, 0xff,
  0xff, 0xff, 0xff, 0xff, 0x30, 0xe3, 0xff, 0xff, 0x08, 0x00, 0x00, 0x00,
  0x74, 0x66, 0x6c, 0x2e, 0x63, 0x61, 0x73, 0x74, 0x00, 0x00, 0x00, 0x00,
  0x03, 0x00, 0x00, 0x00, 0x01, 0x00, 0x00, 0x00, 0x01, 0x00, 0x00, 0x00,
  0x01, 0x00, 0x00, 0x00, 0xd6, 0xe4, 0xff, 0xff, 0x00, 0x00, 0x00, 0x02,
  0x5b, 0x00, 0x00, 0x00, 0x0c, 0x00, 0x00, 0x00, 0x04, 0x00, 0x00, 0x00,
  0x68, 0xe3, 0xff, 0xff, 0x0b, 0x00, 0x00, 0x00, 0x77, 0x68, 0x69, 0x6c,
  0x65, 0x2f, 0x61, 0x64, 0x64, 0x5f, 0x35, 0x00, 0x88, 0xe4, 0xff, 0xff,
  0x5c, 0x00, 0x00, 0x00, 0x5a, 0x00, 0x00, 0x00, 0x20, 0x00, 0x00, 0x00,
  0x18, 0x00, 0x00, 0x00, 0x04, 0x00, 0x00, 0x00, 0x03, 0x00, 0x00, 0x00,
  0xff, 0xff, 0xff, 0xff, 0xff, 0xff, 0xff, 0xff, 0x05, 0x00, 0x00, 0x00,
  0xa4, 0xe3, 0xff, 0xff, 0x2c, 0x00, 0x00, 0x00, 0x77, 0x68, 0x69, 0x6c,
  0x65, 0x2f, 0x54, 0x65, 0x6e, 0x73, 0x6f, 0x72, 0x41, 0x72, 0x72, 0x61,
  0x79, 0x56, 0x32, 0x57, 0x72, 0x69, 0x74, 0x65, 0x2f, 0x54, 0x65, 0x6e,
  0x73, 0x6f, 0x72, 0x4c, 0x69, 0x73, 0x74, 0x53, 0x65, 0x74, 0x49, 0x74,
  0x65, 0x6d, 0x31, 0x32, 0x00, 0x00, 0x00, 0x00, 0x03, 0x00, 0x00, 0x00,
  0x01, 0x00, 0x00, 0x00, 0x01, 0x00, 0x00, 0x00, 0x05, 0x00, 0x00, 0x00,
  0xf8, 0xe4, 0xff, 0xff, 0x5c, 0x00, 0x00, 0x00, 0x59, 0x00, 0x00, 0x00,
  0x20, 0x00, 0x00, 0x00, 0x18, 0x00, 0x00, 0x00, 0x04, 0x00, 0x00, 0x00,
  0x03, 0x00, 0x00, 0x00, 0x01, 0x00, 0x00, 0x00, 0xff, 0xff, 0xff, 0xff,
  0x05, 0x00, 0x00, 0x00, 0x14, 0xe4, 0xff, 0xff, 0x2c, 0x00, 0x00, 0x00,
  0x77, 0x68, 0x69, 0x6c, 0x65, 0x2f, 0x54, 0x65, 0x6e, 0x73, 0x6f, 0x72,
  0x41, 0x72, 0x72, 0x61, 0x79, 0x56, 0x32, 0x57, 0x72, 0x69, 0x74, 0x65,
  0x2f, 0x54, 0x65, 0x6e, 0x73, 0x6f, 0x72, 0x4c, 0x69, 0x73, 0x74, 0x53,
  0x65, 0x74, 0x49, 0x74, 0x65, 0x6d, 0x31, 0x31, 0x00, 0x00, 0x00, 0x00,
  0x03, 0x00, 0x00, 0x00, 0x01, 0x00, 0x00, 0x00, 0x01, 0x00, 0x00, 0x00,
  0x05, 0x00, 0x00, 0x00, 0x68, 0xe5, 0xff, 0xff, 0x5c, 0x00, 0x00, 0x00,
  0x58, 0x00, 0x00, 0x00, 0x20, 0x00, 0x00, 0x00, 0x18, 0x00, 0x00, 0x00,
  0x04, 0x00, 0x00, 0x00, 0x03, 0x00, 0x00, 0x00, 0xff, 0xff, 0xff, 0xff,
  0xff, 0xff, 0xff, 0xff, 0xff, 0xff, 0xff, 0xff, 0x84, 0xe4, 0xff, 0xff,
  0x2c, 0x00, 0x00, 0x00, 0x77, 0x68, 0x69, 0x6c, 0x65, 0x2f, 0x54, 0x65,
  0x6e, 0x73, 0x6f, 0x72, 0x41, 0x72, 0x72, 0x61, 0x79, 0x56, 0x32, 0x57,
  0x72, 0x69, 0x74, 0x65, 0x2f, 0x54, 0x65, 0x6e, 0x73, 0x6f, 0x72, 0x4c,
  0x69, 0x73, 0x74, 0x53, 0x65, 0x74, 0x49, 0x74, 0x65, 0x6d, 0x31, 0x30,
  0x00, 0x00, 0x00, 0x00, 0x03, 0x00, 0x00, 0x00, 0x01, 0x00, 0x00, 0x00,
  0x01, 0x00, 0x00, 0x00, 0x01, 0x00, 0x00, 0x00, 0xca, 0xe6, 0xff, 0xff,
  0x00, 0x00, 0x00, 0x02, 0x44, 0x00, 0x00, 0x00, 0x57, 0x00, 0x00, 0x00,
  0x0c, 0x00, 0x00, 0x00, 0x04, 0x00, 0x00, 0x00, 0xe4, 0xe4, 0xff, 0xff,
  0x2b, 0x00, 0x00, 0x00, 0x77, 0x68, 0x69, 0x6c, 0x65, 0x2f, 0x54, 0x65,
  0x6e, 0x73, 0x6f, 0x72, 0x41, 0x72, 0x72, 0x61, 0x79, 0x56, 0x32, 0x57,
  0x72, 0x69, 0x74, 0x65, 0x2f, 0x54, 0x65, 0x6e, 0x73, 0x6f, 0x72, 0x4c,
  0x69, 0x73, 0x74, 0x53, 0x65, 0x74, 0x49, 0x74, 0x65, 0x6d, 0x39, 0x00,
  0x01, 0x00, 0x00, 0x00, 0x03, 0x00, 0x00, 0x00, 0x1e, 0xe7, 0xff, 0xff,
  0x00, 0x00, 0x00, 0x02, 0x44, 0x00, 0x00, 0x00, 0x56, 0x00, 0x00, 0x00,
  0x0c, 0x00, 0x00, 0x00, 0x04, 0x00, 0x00, 0x00, 0x38, 0xe5, 0xff, 0xff,
  0x2b, 0x00, 0x00, 0x00, 0x77, 0x68, 0x69, 0x6c, 0x65, 0x2f, 0x54, 0x65,
  0x6e, 0x73, 0x6f, 0x72, 0x41, 0x72, 0x72, 0x61, 0x79, 0x56, 0x32, 0x57,
  0x72, 0x69, 0x74, 0x65, 0x2f, 0x54, 0x65, 0x6e, 0x73, 0x6f, 0x72, 0x4c,
  0x69, 0x73, 0x74, 0x53, 0x65, 0x74, 0x49, 0x74, 0x65, 0x6d, 0x38, 0x00,
  0x01, 0x00, 0x00, 0x00, 0x01, 0x00, 0x00, 0x00, 0x80, 0xe6, 0xff, 0xff,
  0x58, 0x00, 0x00, 0x00, 0x55, 0x00, 0x00, 0x00, 0x20, 0x00, 0x00, 0x00,
  0x18, 0x00, 0x00, 0x00, 0x04, 0x00, 0x00, 0x00, 0x03, 0x00, 0x00, 0x00,
  0xff, 0xff, 0xff, 0xff, 0xff, 0xff, 0xff, 0xff, 0xff, 0xff, 0xff, 0xff,
  0x9c, 0xe5, 0xff, 0xff, 0x2b, 0x00, 0x00, 0x00, 0x77, 0x68, 0x69, 0x6c,
  0x65, 0x2f, 0x54, 0x65, 0x6e, 0x73, 0x6f, 0x72, 0x41, 0x72, 0x72, 0x61,
  0x79, 0x56, 0x32, 0x57, 0x72, 0x69, 0x74, 0x65, 0x2f, 0x54, 0x65, 0x6e,
  0x73, 0x6f, 0x72, 0x4c, 0x69, 0x73, 0x74, 0x53, 0x65, 0x74, 0x49, 0x74,
  0x65, 0x6d, 0x37, 0x00, 0x03, 0x00, 0x00, 0x00, 0x01, 0x00, 0x00, 0x00,
  0x01, 0x00, 0x00, 0x00, 0x01, 0x00, 0x00, 0x00, 0xde, 0xe7, 0xff, 0xff,
  0x00, 0x00, 0x00, 0x02, 0x44, 0x00, 0x00, 0x00, 0x54, 0x00, 0x00, 0x00,
  0x0c, 0x00, 0x00, 0x00, 0x04, 0x00, 0x00, 0x00, 0xf8, 0xe5, 0xff, 0xff,
  0x2b, 0x00, 0x00, 0x00, 0x77, 0x68, 0x69, 0x6c, 0x65, 0x2f, 0x54, 0x65,
  0x6e, 0x73, 0x6f, 0x72, 0x41, 0x72, 0x72, 0x61, 0x79, 0x56, 0x32, 0x57,
  0x72, 0x69, 0x74, 0x65, 0x2f, 0x54, 0x65, 0x6e, 0x73, 0x6f, 0x72, 0x4c,
  0x69, 0x73, 0x74, 0x53, 0x65, 0x74, 0x49, 0x74, 0x65, 0x6d, 0x36, 0x00,
  0x01, 0x00, 0x00, 0x00, 0x03, 0x00, 0x00, 0x00, 0x32, 0xe8, 0xff, 0xff,
  0x00, 0x00, 0x00, 0x02, 0x44, 0x00, 0x00, 0x00, 0x53, 0x00, 0x00, 0x00,
  0x0c, 0x00, 0x00, 0x00, 0x04, 0x00, 0x00, 0x00, 0x4c, 0xe6, 0xff, 0xff,
  0x2b, 0x00, 0x00, 0x00, 0x77, 0x68, 0x69, 0x6c, 0x65, 0x2f, 0x54, 0x65,
  0x6e, 0x73, 0x6f, 0x72, 0x41, 0x72, 0x72, 0x61, 0x79, 0x56, 0x32, 0x57,
  0x72, 0x69, 0x74, 0x65, 0x2f, 0x54, 0x65, 0x6e, 0x73, 0x6f, 0x72, 0x4c,
  0x69, 0x73, 0x74, 0x53, 0x65, 0x74, 0x49, 0x74, 0x65, 0x6d, 0x35, 0x00,
  0x01, 0x00, 0x00, 0x00, 0x01, 0x00, 0x00, 0x00, 0x94, 0xe7, 0xff, 0xff,
  0x34, 0x00, 0x00, 0x00, 0x52, 0x00, 0x00, 0x00, 0x1c, 0x00, 0x00, 0x00,
  0x14, 0x00, 0x00, 0x00, 0x04, 0x00, 0x00, 0x00, 0x02, 0x00, 0x00, 0x00,
  0xff, 0xff, 0xff, 0xff, 0x05, 0x00, 0x00, 0x00, 0xac, 0xe6, 0xff, 0xff,
  0x0b, 0x00, 0x00, 0x00, 0x77, 0x68, 0x69, 0x6c, 0x65, 0x2f, 0x61, 0x64,
  0x64, 0x5f, 0x33, 0x00, 0x02, 0x00, 0x00, 0x00, 0x01, 0x00, 0x00, 0x00,
  0x05, 0x00, 0x00, 0x00, 0xd8, 0xe7, 0xff, 0xff, 0x34, 0x00, 0x00, 0x00,
  0x51, 0x00, 0x00, 0x00, 0x1c, 0x00, 0x00, 0x00, 0x14, 0x00, 0x00, 0x00,
  0x04, 0x00, 0x00, 0x00, 0x02, 0x00, 0x00, 0x00, 0xff, 0xff, 0xff, 0xff,
  0x05, 0x00, 0x00, 0x00, 0xf0, 0xe6, 0xff, 0xff, 0x0b, 0x00, 0x00, 0x00,
  0x77, 0x68, 0x69, 0x6c, 0x65, 0x2f, 0x6d, 0x75, 0x6c, 0x5f, 0x32, 0x00,
  0x02, 0x00, 0x00, 0x00, 0x01, 0x00, 0x00, 0x00, 0x05, 0x00, 0x00, 0x00,
  0x1c, 0xe8, 0xff, 0xff, 0x34, 0x00, 0x00, 0x00, 0x50, 0x00, 0x00, 0x00,
  0x1c, 0x00, 0x00, 0x00, 0x14, 0x00, 0x00, 0x00, 0x04, 0x00, 0x00, 0x00,
  0x02, 0x00, 0x00, 0x00, 0xff, 0xff, 0xff, 0xff, 0x05, 0x00, 0x00, 0x00,
  0x34, 0xe7, 0xff, 0xff, 0x0a, 0x00, 0x00, 0x00, 0x77, 0x68, 0x69, 0x6c,
  0x65, 0x2f, 0x54, 0x61, 0x6e, 0x68, 0x00, 0x00, 0x02, 0x00, 0x00, 0x00,
  0x01, 0x00, 0x00, 0x00, 0x05, 0x00, 0x00, 0x00, 0x60, 0xe8, 0xff, 0xff,
  0x34, 0x00, 0x00, 0x00, 0x4f, 0x00, 0x00, 0x00, 0x1c, 0x00, 0x00, 0x00,
  0x14, 0x00, 0x00, 0x00, 0x04, 0x00, 0x00, 0x00, 0x02, 0x00, 0x00, 0x00,
  0xff, 0xff, 0xff, 0xff, 0x05, 0x00, 0x00, 0x00, 0x78, 0xe7, 0xff, 0xff,
  0x0b, 0x00, 0x00, 0x00, 0x77, 0x68, 0x69, 0x6c, 0x65, 0x2f, 0x61, 0x64,
  0x64, 0x5f, 0x32, 0x00, 0x02, 0x00, 0x00, 0x00, 0x01, 0x00, 0x00, 0x00,
  0x05, 0x00, 0x00, 0x00, 0xa4, 0xe8, 0xff, 0xff, 0x34, 0x00, 0x00, 0x00,
  0x4e, 0x00, 0x00, 0x00, 0x1c, 0x00, 0x00, 0x00, 0x14, 0x00, 0x00, 0x00,
  0x04, 0x00, 0x00, 0x00, 0x02, 0x00, 0x00, 0x00, 0xff, 0xff, 0xff, 0xff,
  0x05, 0x00, 0x00, 0x00, 0xbc, 0xe7, 0xff, 0xff, 0x09, 0x00, 0x00, 0x00,
  0x77, 0x68, 0x69, 0x6c, 0x65, 0x2f, 0x6d, 0x75, 0x6c, 0x00, 0x00, 0x00,
  0x02, 0x00, 0x00, 0x00, 0x01, 0x00, 0x00, 0x00, 0x05, 0x00, 0x00, 0x00,
  0xe8, 0xe8, 0xff, 0xff, 0x38, 0x00, 0x00, 0x00, 0x4d, 0x00, 0x00, 0x00,
  0x1c, 0x00, 0x00, 0x00, 0x14, 0x00, 0x00, 0x00, 0x04, 0x00, 0x00, 0x00,
  0x02, 0x00, 0x00, 0x00, 0xff, 0xff, 0xff, 0xff, 0x05, 0x00, 0x00, 0x00,
  0x00, 0xe8, 0xff, 0xff, 0x0f, 0x00, 0x00, 0x00, 0x77, 0x68, 0x69, 0x6c,
  0x65, 0x2f, 0x53, 0x69, 0x67, 0x6d, 0x6f, 0x69, 0x64, 0x5f, 0x31, 0x00,
  0x02, 0x00, 0x00, 0x00, 0x01, 0x00, 0x00, 0x00, 0x05, 0x00, 0x00, 0x00,
  0x30, 0xe9, 0xff, 0xff, 0x34, 0x00, 0x00, 0x00, 0x4c, 0x00, 0x00, 0x00,
  0x1c, 0x00, 0x00, 0x00, 0x14, 0x00, 0x00, 0x00, 0x04, 0x00, 0x00, 0x00,
  0x02, 0x00, 0x00, 0x00, 0xff, 0xff, 0xff, 0xff, 0x05, 0x00, 0x00, 0x00,
  0x48, 0xe8, 0xff, 0xff, 0x0b, 0x00, 0x00, 0x00, 0x77, 0x68, 0x69, 0x6c,
  0x65, 0x2f, 0x61, 0x64, 0x64, 0x5f, 0x31, 0x00, 0x02, 0x00, 0x00, 0x00,
  0x01, 0x00, 0x00, 0x00, 0x05, 0x00, 0x00, 0x00, 0x74, 0xe9, 0xff, 0xff,
  0x34, 0x00, 0x00, 0x00, 0x4b, 0x00, 0x00, 0x00, 0x1c, 0x00, 0x00, 0x00,
  0x14, 0x00, 0x00, 0x00, 0x04, 0x00, 0x00, 0x00, 0x02, 0x00, 0x00, 0x00,
  0xff, 0xff, 0xff, 0xff, 0x05, 0x00, 0x00, 0x00, 0x8c, 0xe8, 0xff, 0xff,
  0x09, 0x00, 0x00, 0x00, 0x77, 0x68, 0x69, 0x6c, 0x65, 0x2f, 0x73, 0x75,
  0x62, 0x00, 0x00, 0x00, 0x02, 0x00, 0x00, 0x00, 0x01, 0x00, 0x00, 0x00,
  0x05, 0x00, 0x00, 0x00, 0xb8, 0xe9, 0xff, 0xff, 0x34, 0x00, 0x00, 0x00,
  0x4a, 0x00, 0x00, 0x00, 0x1c, 0x00, 0x00, 0x00, 0x14, 0x00, 0x00, 0x00,
  0x04, 0x00, 0x00, 0x00, 0x02, 0x00, 0x00, 0x00, 0xff, 0xff, 0xff, 0xff,
  0x05, 0x00, 0x00, 0x00, 0xd0, 0xe8, 0xff, 0xff, 0x0b, 0x00, 0x00, 0x00,
  0x77, 0x68, 0x69, 0x6c, 0x65, 0x2f, 0x6d, 0x75, 0x6c, 0x5f, 0x31, 0x00,
  0x02, 0x00, 0x00, 0x00, 0x01, 0x00, 0x00, 0x00, 0x05, 0x00, 0x00, 0x00,
  0xfc, 0xe9, 0xff, 0xff, 0x38, 0x00, 0x00, 0x00, 0x49, 0x00, 0x00, 0x00,
  0x1c, 0x00, 0x00, 0x00, 0x14, 0x00, 0x00, 0x00, 0x04, 0x00, 0x00, 0x00,
  0x02, 0x00, 0x00, 0x00, 0xff, 0xff, 0xff, 0xff, 0x05, 0x00, 0x00, 0x00,
  0x14, 0xe9, 0xff, 0xff, 0x0d, 0x00, 0x00, 0x00, 0x77, 0x68, 0x69, 0x6c,
  0x65, 0x2f, 0x53, 0x69, 0x67, 0x6d, 0x6f, 0x69, 0x64, 0x00, 0x00, 0x00,
  0x02, 0x00, 0x00, 0x00, 0x01, 0x00, 0x00, 0x00, 0x05, 0x00, 0x00, 0x00,
  0x44, 0xea, 0xff, 0xff, 0x34, 0x00, 0x00, 0x00, 0x48, 0x00, 0x00, 0x00,
  0x1c, 0x00, 0x00, 0x00, 0x14, 0x00, 0x00, 0x00, 0x04, 0x00, 0x00, 0x00,
  0x02, 0x00, 0x00, 0x00, 0xff, 0xff, 0xff, 0xff, 0x05, 0x00, 0x00, 0x00,
  0x5c, 0xe9, 0xff, 0xff, 0x09, 0x00, 0x00, 0x00, 0x77, 0x68, 0x69, 0x6c,
  0x65, 0x2f, 0x61, 0x64, 0x64, 0x00, 0x00, 0x00, 0x02, 0x00, 0x00, 0x00,
  0x01, 0x00, 0x00, 0x00, 0x05, 0x00, 0x00, 0x00, 0x88, 0xea, 0xff, 0xff,
  0x38, 0x00, 0x00, 0x00, 0x47, 0x00, 0x00, 0x00, 0x1c, 0x00, 0x00, 0x00,
  0x14, 0x00, 0x00, 0x00, 0x04, 0x00, 0x00, 0x00, 0x02, 0x00, 0x00, 0x00,
  0xff, 0xff, 0xff, 0xff, 0x05, 0x00, 0x00, 0x00, 0xa0, 0xe9, 0xff, 0xff,
  0x0c, 0x00, 0x00, 0x00, 0x77, 0x68, 0x69, 0x6c, 0x65, 0x2f, 0x73, 0x70,
  0x6c, 0x69, 0x74, 0x32, 0x00, 0x00, 0x00, 0x00, 0x02, 0x00, 0x00, 0x00,
  0x01, 0x00, 0x00, 0x00, 0x05, 0x00, 0x00, 0x00, 0xd0, 0xea, 0xff, 0xff,
  0x38, 0x00, 0x00, 0x00, 0x46, 0x00, 0x00, 0x00, 0x1c, 0x00, 0x00, 0x00,
  0x14, 0x00, 0x00, 0x00, 0x04, 0x00, 0x00, 0x00, 0x02, 0x00, 0x00, 0x00,
  0xff, 0xff, 0xff, 0xff, 0x05, 0x00, 0x00, 0x00, 0xe8, 0xe9, 0xff, 0xff,
  0x0c, 0x00, 0x00, 0x00, 0x77, 0x68, 0x69, 0x6c, 0x65, 0x2f, 0x73, 0x70,
  0x6c, 0x69, 0x74, 0x31, 0x00, 0x00, 0x00, 0x00, 0x02, 0x00, 0x00, 0x00,
  0x01, 0x00, 0x00, 0x00, 0x05, 0x00, 0x00, 0x00, 0x18, 0xeb, 0xff, 0xff,
  0x34, 0x00, 0x00, 0x00, 0x45, 0x00, 0x00, 0x00, 0x1c, 0x00, 0x00, 0x00,
  0x14, 0x00, 0x00, 0x00, 0x04, 0x00, 0x00, 0x00, 0x02, 0x00, 0x00, 0x00,
  0xff, 0xff, 0xff, 0xff, 0x05, 0x00, 0x00, 0x00, 0x30, 0xea, 0xff, 0xff,
  0x0b, 0x00, 0x00, 0x00, 0x77, 0x68, 0x69, 0x6c, 0x65, 0x2f, 0x73, 0x70,
  0x6c, 0x69, 0x74, 0x00, 0x02, 0x00, 0x00, 0x00, 0x01, 0x00, 0x00, 0x00,
  0x05, 0x00, 0x00, 0x00, 0x5c, 0xeb, 0xff, 0xff, 0x38, 0x00, 0x00, 0x00,
  0x44, 0x00, 0x00, 0x00, 0x1c, 0x00, 0x00, 0x00, 0x14, 0x00, 0x00, 0x00,
  0x04, 0x00, 0x00, 0x00, 0x02, 0x00, 0x00, 0x00, 0xff, 0xff, 0xff, 0xff,
  0x0f, 0x00, 0x00, 0x00, 0x74, 0xea, 0xff, 0xff, 0x0d, 0x00, 0x00, 0x00,
  0x77, 0x68, 0x69, 0x6c, 0x65, 0x2f, 0x42, 0x69, 0x61, 0x73, 0x41, 0x64,
  0x64, 0x00, 0x00, 0x00, 0x02, 0x00, 0x00, 0x00, 0x01, 0x00, 0x00, 0x00,
  0x0f, 0x00, 0x00, 0x00, 0xa4, 0xeb, 0xff, 0xff, 0x54, 0x00, 0x00, 0x00,
  0x43, 0x00, 0x00, 0x00, 0x1c, 0x00, 0x00, 0x00, 0x14, 0x00, 0x00, 0x00,
  0x04, 0x00, 0x00, 0x00, 0x02, 0x00, 0x00, 0x00, 0xff, 0xff, 0xff, 0xff,
  0x01, 0x00, 0x00, 0x00, 0xbc, 0xea, 0xff, 0xff, 0x29, 0x00, 0x00, 0x00,
  0x77, 0x68, 0x69, 0x6c, 0x65, 0x2f, 0x54, 0x65, 0x6e, 0x73, 0x6f, 0x72,
  0x41, 0x72, 0x72, 0x61, 0x79, 0x56, 0x32, 0x52, 0x65, 0x61, 0x64, 0x2f,
  0x54, 0x65, 0x6e, 0x73, 0x6f, 0x72, 0x4c, 0x69, 0x73, 0x74, 0x47, 0x65,
  0x74, 0x49, 0x74, 0x65, 0x6d, 0x00, 0x00, 0x00, 0x02, 0x00, 0x00, 0x00,
  0x01, 0x00, 0x00, 0x00, 0x01, 0x00, 0x00, 0x00, 0x08, 0xec, 0xff, 0xff,
  0x38, 0x00, 0x00, 0x00, 0x42, 0x00, 0x00, 0x00, 0x1c, 0x00, 0x00, 0x00,
  0x14, 0x00, 0x00, 0x00, 0x04, 0x00, 0x00, 0x00, 0x02, 0x00, 0x00, 0x00,
  0xff, 0xff, 0xff, 0xff, 0x05, 0x00, 0x00, 0x00, 0x20, 0xeb, 0xff, 0xff,
  0x0e, 0x00, 0x00, 0x00, 0x77, 0x68, 0x69, 0x6c, 0x65, 0x2f, 0x73, 0x70,
  0x6c, 0x69, 0x74, 0x5f, 0x31, 0x32, 0x00, 0x00, 0x02, 0x00, 0x00, 0x00,
  0x01, 0x00, 0x00, 0x00, 0x05, 0x00, 0x00, 0x00, 0x50, 0xec, 0xff, 0xff,
  0x38, 0x00, 0x00, 0x00, 0x41, 0x00, 0x00, 0x00, 0x1c, 0x00, 0x00, 0x00,
  0x14, 0x00, 0x00, 0x00, 0x04, 0x00, 0x00, 0x00, 0x02, 0x00, 0x00, 0x00,
  0xff, 0xff, 0xff, 0xff, 0x05, 0x00, 0x00, 0x00, 0x68, 0xeb, 0xff, 0xff,
  0x0e, 0x00, 0x00, 0x00, 0x77, 0x68, 0x69, 0x6c, 0x65, 0x2f, 0x73, 0x70,
  0x6c, 0x69, 0x74, 0x5f, 0x31, 0x31, 0x00, 0x00, 0x02, 0x00, 0x00, 0x00,
  0x01, 0x00, 0x00, 0x00, 0x05, 0x00, 0x00, 0x00, 0x98, 0xec, 0xff, 0xff,
  0x38, 0x00, 0x00, 0x00, 0x40, 0x00, 0x00, 0x00, 0x1c, 0x00, 0x00, 0x00,
  0x14, 0x00, 0x00, 0x00, 0x04, 0x00, 0x00, 0x00, 0x02, 0x00, 0x00, 0x00,
  0xff, 0xff, 0xff, 0xff, 0x05, 0x00, 0x00, 0x00, 0xb0, 0xeb, 0xff, 0xff,
  0x0d, 0x00, 0x00, 0x00, 0x77, 0x68, 0x69, 0x6c, 0x65, 0x2f, 0x73, 0x70,
  0x6c, 0x69, 0x74, 0x5f, 0x31, 0x00, 0x00, 0x00, 0x02, 0x00, 0x00, 0x00,
  0x01, 0x00, 0x00, 0x00, 0x05, 0x00, 0x00, 0x00, 0xe0, 0xec, 0xff, 0xff,
  0x38, 0x00, 0x00, 0x00, 0x3f, 0x00, 0x00, 0x00, 0x1c, 0x00, 0x00, 0x00,
  0x14, 0x00, 0x00, 0x00, 0x04, 0x00, 0x00, 0x00, 0x02, 0x00, 0x00, 0x00,
  0xff, 0xff, 0xff, 0xff, 0x0f, 0x00, 0x00, 0x00, 0xf8, 0xeb, 0xff, 0xff,
  0x0f, 0x00, 0x00, 0x00, 0x77, 0x68, 0x69, 0x6c, 0x65, 0x2f, 0x42, 0x69,
  0x61, 0x73, 0x41, 0x64, 0x64, 0x5f, 0x31, 0x00, 0x02, 0x00, 0x00, 0x00,
  0x01, 0x00, 0x00, 0x00, 0x0f, 0x00, 0x00, 0x00, 0x9e, 0xed, 0xff, 0xff,
  0x00, 0x00, 0x00, 0x02, 0x3e, 0x00, 0x00, 0x00, 0x0c, 0x00, 0x00, 0x00,
  0x04, 0x00, 0x00, 0x00, 0x30, 0xec, 0xff, 0xff, 0x0b, 0x00, 0x00, 0x00,
  0x77, 0x68, 0x69, 0x6c, 0x65, 0x2f, 0x61, 0x64, 0x64, 0x5f, 0x34, 0x00,
  0x42, 0xee, 0xff, 0xff, 0x00, 0x00, 0x00, 0x02, 0x44, 0x00, 0x00, 0x00,
  0x3d, 0x00, 0x00, 0x00, 0x0c, 0x00, 0x00, 0x00, 0x04, 0x00, 0x00, 0x00,
  0x5c, 0xec, 0xff, 0xff, 0x2b, 0x00, 0x00, 0x00, 0x77, 0x68, 0x69, 0x6c,
  0x65, 0x2f, 0x54, 0x65, 0x6e, 0x73, 0x6f, 0x72, 0x41, 0x72, 0x72, 0x61,
  0x79, 0x56, 0x32, 0x57, 0x72, 0x69, 0x74, 0x65, 0x2f, 0x54, 0x65, 0x6e,
  0x73, 0x6f, 0x72, 0x4c, 0x69, 0x73, 0x74, 0x53, 0x65, 0x74, 0x49, 0x74,
  0x65, 0x6d, 0x34, 0x00, 0x01, 0x00, 0x00, 0x00, 0x03, 0x00, 0x00, 0x00,
  0x96, 0xee, 0xff, 0xff, 0x00, 0x00, 0x00, 0x02, 0x44, 0x00, 0x00, 0x00,
  0x3c, 0x00, 0x00, 0x00, 0x0c, 0x00, 0x00, 0x00, 0x04, 0x00, 0x00, 0x00,
  0xb0, 0xec, 0xff, 0xff, 0x2b, 0x00, 0x00, 0x00, 0x77, 0x68, 0x69, 0x6c,
  0x65, 0x2f, 0x54, 0x65, 0x6e, 0x73, 0x6f, 0x72, 0x41, 0x72, 0x72, 0x61,
  0x79, 0x56, 0x32, 0x57, 0x72, 0x69, 0x74, 0x65, 0x2f, 0x54, 0x65, 0x6e,
  0x73, 0x6f, 0x72, 0x4c, 0x69, 0x73, 0x74, 0x53, 0x65, 0x74, 0x49, 0x74,
  0x65, 0x6d, 0x33, 0x00, 0x01, 0x00, 0x00, 0x00, 0x02, 0x00, 0x00, 0x00,
  0xea, 0xee, 0xff, 0xff, 0x00, 0x00, 0x00, 0x02, 0x44, 0x00, 0x00, 0x00,
  0x3b, 0x00, 0x00, 0x00, 0x0c, 0x00, 0x00, 0x00, 0x04, 0x00, 0x00, 0x00,
  0x04, 0xed, 0xff, 0xff, 0x2b, 0x00, 0x00, 0x00, 0x77, 0x68, 0x69, 0x6c,
  0x65, 0x2f, 0x54, 0x65, 0x6e, 0x73, 0x6f, 0x72, 0x41, 0x72, 0x72, 0x61,
  0x79, 0x56, 0x32, 0x57, 0x72, 0x69, 0x74, 0x65, 0x2f, 0x54, 0x65, 0x6e,
  0x73, 0x6f, 0x72, 0x4c, 0x69, 0x73, 0x74, 0x53, 0x65, 0x74, 0x49, 0x74,
  0x65, 0x6d, 0x32, 0x00, 0x01, 0x00, 0x00, 0x00, 0x02, 0x00, 0x00, 0x00,
  0x3e, 0xef, 0xff, 0xff, 0x00, 0x00, 0x00, 0x02, 0x44, 0x00, 0x00, 0x00,
  0x3a, 0x00, 0x00, 0x00, 0x0c, 0x00, 0x00, 0x00, 0x04, 0x00, 0x00, 0x00,
  0x58, 0xed, 0xff, 0xff, 0x2b, 0x00, 0x00, 0x00, 0x77, 0x68, 0x69, 0x6c,
  0x65, 0x2f, 0x54, 0x65, 0x6e, 0x73, 0x6f, 0x72, 0x41, 0x72, 0x72, 0x61,
  0x79, 0x56, 0x32, 0x57, 0x72, 0x69, 0x74, 0x65, 0x2f, 0x54, 0x65, 0x6e,
  0x73, 0x6f, 0x72, 0x4c, 0x69, 0x73, 0x74, 0x53, 0x65, 0x74, 0x49, 0x74,
  0x65, 0x6d, 0x31, 0x00, 0x01, 0x00, 0x00, 0x00, 0x03, 0x00, 0x00, 0x00,
  0x16, 0xef, 0xff, 0xff, 0x00, 0x00, 0x00, 0x02, 0x39, 0x00, 0x00, 0x00,
  0x0c, 0x00, 0x00, 0x00, 0x04, 0x00, 0x00, 0x00, 0xa8, 0xed, 0xff, 0xff,
  0x2a, 0x00, 0x00, 0x00, 0x77, 0x68, 0x69, 0x6c, 0x65, 0x2f, 0x54, 0x65,
  0x6e, 0x73, 0x6f, 0x72, 0x41, 0x72, 0x72, 0x61, 0x79, 0x56, 0x32, 0x57,
  0x72, 0x69, 0x74, 0x65, 0x2f, 0x54, 0x65, 0x6e, 0x73, 0x6f, 0x72, 0x4c,
  0x69, 0x73, 0x74, 0x53, 0x65, 0x74, 0x49, 0x74, 0x65, 0x6d, 0x00, 0x00,
  0x26, 0xef, 0xff, 0xff, 0x28, 0x00, 0x00, 0x00, 0x38, 0x00, 0x00, 0x00,
  0x0c, 0x00, 0x00, 0x00, 0x04, 0x00, 0x00, 0x00, 0xf0, 0xed, 0xff, 0xff,
  0x0c, 0x00, 0x00, 0x00, 0x77, 0x68, 0x69, 0x6c, 0x65, 0x2f, 0x4d, 0x61,
  0x74, 0x4d, 0x75, 0x6c, 0x00, 0x00, 0x00, 0x00, 0x02, 0x00, 0x00, 0x00,
  0x0f, 0x00, 0x00, 0x00, 0x01, 0x00, 0x00, 0x00, 0x5e, 0xef, 0xff, 0xff,
  0x28, 0x00, 0x00, 0x00, 0x37, 0x00, 0x00, 0x00, 0x0c, 0x00, 0x00, 0x00,
  0x04, 0x00, 0x00, 0x00, 0x28, 0xee, 0xff, 0xff, 0x0e, 0x00, 0x00, 0x00,
  0x77, 0x68, 0x69, 0x6c, 0x65, 0x2f, 0x4d, 0x61, 0x74, 0x4d, 0x75, 0x6c,
  0x5f, 0x31, 0x00, 0x00, 0x02, 0x00, 0x00, 0x00, 0x0f, 0x00, 0x00, 0x00,
  0x05, 0x00, 0x00, 0x00, 0x96, 0xef, 0xff, 0xff, 0x28, 0x00, 0x00, 0x00,
  0x36, 0x00, 0x00, 0x00, 0x0c, 0x00, 0x00, 0x00, 0x04, 0x00, 0x00, 0x00,
  0x60, 0xee, 0xff, 0xff, 0x0e, 0x00, 0x00, 0x00, 0x73, 0x74, 0x64, 0x2e,
  0x63, 0x6f, 0x6e, 0x73, 0x74, 0x61, 0x6e, 0x74, 0x31, 0x38, 0x00, 0x00,
  0x01, 0x00, 0x00, 0x00, 0x0f, 0x00, 0x00, 0x00, 0xca, 0xef, 0xff, 0xff,
  0x28, 0x00, 0x00, 0x00, 0x35, 0x00, 0x00, 0x00, 0x0c, 0x00, 0x00, 0x00,
  0x04, 0x00, 0x00, 0x00, 0x94, 0xee, 0xff, 0xff, 0x0e, 0x00, 0x00, 0x00,
  0x73, 0x74, 0x64, 0x2e, 0x63, 0x6f, 0x6e, 0x73, 0x74, 0x61, 0x6e, 0x74,
  0x31, 0x37, 0x00, 0x00, 0x01, 0x00, 0x00, 0x00, 0x0f, 0x00, 0x00, 0x00,
  0x6a, 0xf0, 0xff, 0xff, 0x34, 0x00, 0x00, 0x00, 0x0c, 0x00, 0x00, 0x00,
  0x04, 0x00, 0x00, 0x00, 0xc4, 0xee, 0xff, 0xff, 0x0e, 0x00, 0x00, 0x00,
  0x73, 0x74, 0x64, 0x2e, 0x63, 0x6f, 0x6e, 0x73, 0x74, 0x61, 0x6e, 0x74,
  0x31, 0x36, 0x00, 0x00, 0xda, 0xf0, 0xff, 0xff, 0x00, 0x00, 0x00, 0x02,
  0x28, 0x00, 0x00, 0x00, 0x33, 0x00, 0x00, 0x00, 0x0c, 0x00, 0x00, 0x00,
  0x04, 0x00, 0x00, 0x00, 0xf4, 0xee, 0xff, 0xff, 0x0e, 0x00, 0x00, 0x00,
  0x73, 0x74, 0x64, 0x2e, 0x63, 0x6f, 0x6e, 0x73, 0x74, 0x61, 0x6e, 0x74,
  0x31, 0x35, 0x00, 0x00, 0x01, 0x00, 0x00, 0x00, 0x01, 0x00, 0x00, 0x00,
  0x96, 0xf0, 0xff, 0xff, 0x00, 0x00, 0x00, 0x02, 0x32, 0x00, 0x00, 0x00,
  0x0c, 0x00, 0x00, 0x00, 0x04, 0x00, 0x00, 0x00, 0x28, 0xef, 0xff, 0xff,
  0x0e, 0x00, 0x00, 0x00, 0x73, 0x74, 0x64, 0x2e, 0x63, 0x6f, 0x6e, 0x73,
  0x74, 0x61, 0x6e, 0x74, 0x31, 0x34, 0x00, 0x00, 0x4c, 0xf0, 0xff, 0xff,
  0x34, 0x00, 0x00, 0x00, 0x31, 0x00, 0x00, 0x00, 0x20, 0x00, 0x00, 0x00,
  0x18, 0x00, 0x00, 0x00, 0x04, 0x00, 0x00, 0x00, 0x03, 0x00, 0x00, 0x00,
  0x06, 0x00, 0x00, 0x00, 0xff, 0xff, 0xff, 0xff, 0x01, 0x00, 0x00, 0x00,
  0x68, 0xef, 0xff, 0xff, 0x04, 0x00, 0x00, 0x00, 0x61, 0x72, 0x67, 0x35,
  0x00, 0x00, 0x00, 0x00, 0x03, 0x00, 0x00, 0x00, 0x06, 0x00, 0x00, 0x00,
  0x01, 0x00, 0x00, 0x00, 0x01, 0x00, 0x00, 0x00, 0x0a, 0xf1, 0xff, 0xff,
  0x00, 0x00, 0x00, 0x02, 0x30, 0x00, 0x00, 0x00, 0x0c, 0x00, 0x00, 0x00,
  0x04, 0x00, 0x00, 0x00, 0x9c, 0xef, 0xff, 0xff, 0x04, 0x00, 0x00, 0x00,
  0x61, 0x72, 0x67, 0x34, 0x00, 0x00, 0x00, 0x00, 0xb8, 0xf0, 0xff, 0xff,
  0x30, 0x00, 0x00, 0x00, 0x2f, 0x00, 0x00, 0x00, 0x1c, 0x00, 0x00, 0x00,
  0x14, 0x00, 0x00, 0x00, 0x04, 0x00, 0x00, 0x00, 0x02, 0x00, 0x00, 0x00,
  0xff, 0xff, 0xff, 0xff, 0x05, 0x00, 0x00, 0x00, 0xd0, 0xef, 0xff, 0xff,
  0x04, 0x00, 0x00, 0x00, 0x61, 0x72, 0x67, 0x33, 0x00, 0x00, 0x00, 0x00,
  0x02, 0x00, 0x00, 0x00, 0x01, 0x00, 0x00, 0x00, 0x05, 0x00, 0x00, 0x00,
  0xf8, 0xf0, 0xff, 0xff, 0x34, 0x00, 0x00, 0x00, 0x2e, 0x00, 0x00, 0x00,
  0x20, 0x00, 0x00, 0x00, 0x18, 0x00, 0x00, 0x00, 0x04, 0x00, 0x00, 0x00,
  0x03, 0x00, 0x00, 0x00, 0xff, 0xff, 0xff, 0xff, 0xff, 0xff, 0xff, 0xff,
  0xff, 0xff, 0xff, 0xff, 0x14, 0xf0, 0xff, 0xff, 0x04, 0x00, 0x00, 0x00,
  0x61, 0x72, 0x67, 0x32, 0x00, 0x00, 0x00, 0x00, 0x03, 0x00, 0x00, 0x00,
  0x01, 0x00, 0x00, 0x00, 0x01, 0x00, 0x00, 0x00, 0x01, 0x00, 0x00, 0x00,
  0xb6, 0xf1, 0xff, 0xff, 0x00, 0x00, 0x00, 0x02, 0x2d, 0x00, 0x00, 0x00,
  0x0c, 0x00, 0x00, 0x00, 0x04, 0x00, 0x00, 0x00, 0x48, 0xf0, 0xff, 0xff,
  0x04, 0x00, 0x00, 0x00, 0x61, 0x72, 0x67, 0x31, 0x00, 0x00, 0x00, 0x00,
  0xda, 0xf1, 0xff, 0xff, 0x00, 0x00, 0x00, 0x02, 0x2c, 0x00, 0x00, 0x00,
  0x0c, 0x00, 0x00, 0x00, 0x04, 0x00, 0x00, 0x00, 0x6c, 0xf0, 0xff, 0xff,
  0x04, 0x00, 0x00, 0x00, 0x61, 0x72, 0x67, 0x30, 0x00, 0x00, 0x00, 0x00,
  0xee, 0xfd, 0xff, 0xff, 0x78, 0x00, 0x00, 0x00, 0x58, 0x00, 0x00, 0x00,
  0x4c, 0x00, 0x00, 0x00, 0x1c, 0x00, 0x00, 0x00, 0x04, 0x00, 0x00, 0x00,
  0x0e, 0x00, 0x00, 0x00, 0x74, 0x66, 0x6c, 0x2e, 0x77, 0x68, 0x69, 0x6c,
  0x65, 0x5f, 0x63, 0x6f, 0x6e, 0x64, 0x00, 0x00, 0x01, 0x00, 0x00, 0x00,
  0x04, 0x00, 0x00, 0x00, 0x5e, 0xfb, 0xff, 0xff, 0x09, 0x00, 0x00, 0x00,
  0x10, 0x00, 0x00, 0x00, 0x04, 0x00, 0x00, 0x00, 0x01, 0x00, 0x00, 0x00,
  0x06, 0x00, 0x00, 0x00, 0x02, 0x00, 0x00, 0x00, 0x01, 0x00, 0x00, 0x00,
  0x04, 0x00, 0x00, 0x00, 0x01, 0x00, 0x00, 0x00, 0x06, 0x00, 0x00, 0x00,
  0x06, 0x00, 0x00, 0x00, 0x00, 0x00, 0x00, 0x00, 0x01, 0x00, 0x00, 0x00,
  0x02, 0x00, 0x00, 0x00, 0x03, 0x00, 0x00, 0x00, 0x04, 0x00, 0x00, 0x00,
  0x05, 0x00, 0x00, 0x00, 0x07, 0x00, 0x00, 0x00, 0x5c, 0x01, 0x00, 0x00,
  0x34, 0x01, 0x00, 0x00, 0xe8, 0x00, 0x00, 0x00, 0xa4, 0x00, 0x00, 0x00,
  0x7c, 0x00, 0x00, 0x00, 0x30, 0x00, 0x00, 0x00, 0x04, 0x00, 0x00, 0x00,
  0x9a, 0xf2, 0xff, 0xff, 0x00, 0x00, 0x00, 0x06, 0x2b, 0x00, 0x00, 0x00,
  0x0c, 0x00, 0x00, 0x00, 0x04, 0x00, 0x00, 0x00, 0x2c, 0xf1, 0xff, 0xff,
  0x0a, 0x00, 0x00, 0x00, 0x77, 0x68, 0x69, 0x6c, 0x65, 0x2f, 0x4c, 0x65,
  0x73, 0x73, 0x00, 0x00, 0x4c, 0xf2, 0xff, 0xff, 0x34, 0x00, 0x00, 0x00,
  0x2a, 0x00, 0x00, 0x00, 0x20, 0x00, 0x00, 0x00, 0x18, 0x00, 0x00, 0x00,
  0x04, 0x00, 0x00, 0x00, 0x03, 0x00, 0x00, 0x00, 0x06, 0x00, 0x00, 0x00,
  0xff, 0xff, 0xff, 0xff, 0x01, 0x00, 0x00, 0x00, 0x68, 0xf1, 0xff, 0xff,
  0x04, 0x00, 0x00, 0x00, 0x61, 0x72, 0x67, 0x35, 0x00, 0x00, 0x00, 0x00,
  0x03, 0x00, 0x00, 0x00, 0x06, 0x00, 0x00, 0x00, 0x01, 0x00, 0x00, 0x00,
  0x01, 0x00, 0x00, 0x00, 0x0a, 0xf3, 0xff, 0xff, 0x00, 0x00, 0x00, 0x02,
  0x29, 0x00, 0x00, 0x00, 0x0c, 0x00, 0x00, 0x00, 0x04, 0x00, 0x00, 0x00,
  0x9c, 0xf1, 0xff, 0xff, 0x04, 0x00, 0x00, 0x00, 0x61, 0x72, 0x67, 0x34,
  0x00, 0x00, 0x00, 0x00, 0xb8, 0xf2, 0xff, 0xff, 0x30, 0x00, 0x00, 0x00,
  0x28, 0x00, 0x00, 0x00, 0x1c, 0x00, 0x00, 0x00, 0x14, 0x00, 0x00, 0x00,
  0x04, 0x00, 0x00, 0x00, 0x02, 0x00, 0x00, 0x00, 0xff, 0xff, 0xff, 0xff,
  0x05, 0x00, 0x00, 0x00, 0xd0, 0xf1, 0xff, 0xff, 0x04, 0x00, 0x00, 0x00,
  0x61, 0x72, 0x67, 0x33, 0x00, 0x00, 0x00, 0x00, 0x02, 0x00, 0x00, 0x00,
  0x01, 0x00, 0x00, 0x00, 0x05, 0x00, 0x00, 0x00, 0xf8, 0xf2, 0xff, 0xff,
  0x34, 0x00, 0x00, 0x00, 0x27, 0x00, 0x00, 0x00, 0x20, 0x00, 0x00, 0x00,
  0x18, 0x00, 0x00, 0x00, 0x04, 0x00, 0x00, 0x00, 0x03, 0x00, 0x00, 0x00,
  0xff, 0xff, 0xff, 0xff, 0xff, 0xff, 0xff, 0xff, 0xff, 0xff, 0xff, 0xff,
  0x14, 0xf2, 0xff, 0xff, 0x04, 0x00, 0x00, 0x00, 0x61, 0x72, 0x67, 0x32,
  0x00, 0x00, 0x00, 0x00, 0x03, 0x00, 0x00, 0x00, 0x01, 0x00, 0x00, 0x00,
  0x01, 0x00, 0x00, 0x00, 0x01, 0x00, 0x00, 0x00, 0xb6, 0xf3, 0xff, 0xff,
  0x00, 0x00, 0x00, 0x02, 0x26, 0x00, 0x00, 0x00, 0x0c, 0x00, 0x00, 0x00,
  0x04, 0x00, 0x00, 0x00, 0x48, 0xf2, 0xff, 0xff, 0x04, 0x00, 0x00, 0x00,
  0x61, 0x72, 0x67, 0x31, 0x00, 0x00, 0x00, 0x00, 0xda, 0xf3, 0xff, 0xff,
  0x00, 0x00, 0x00, 0x02, 0x25, 0x00, 0x00, 0x00, 0x0c, 0x00, 0x00, 0x00,
  0x04, 0x00, 0x00, 0x00, 0x6c, 0xf2, 0xff, 0xff, 0x04, 0x00, 0x00, 0x00,
  0x61, 0x72, 0x67, 0x30, 0x00, 0x00, 0x00, 0x00, 0x96, 0xfc, 0xff, 0xff,
  0x04, 0x00, 0x00, 0x00, 0x04, 0x00, 0x00, 0x00, 0x4e, 0x6f, 0x4f, 0x70,
  0x00, 0x00, 0x0e, 0x00, 0x18, 0x00, 0x04, 0x00, 0x08, 0x00, 0x0c, 0x00,
  0x10, 0x00, 0x14, 0x00, 0x0e, 0x00, 0x00, 0x00, 0xc4, 0x03, 0x00, 0x00,
  0xb8, 0x03, 0x00, 0x00, 0xac, 0x03, 0x00, 0x00, 0x14, 0x00, 0x00, 0x00,
  0x04, 0x00, 0x00, 0x00, 0x04, 0x00, 0x00, 0x00, 0x6d, 0x61, 0x69, 0x6e,
  0x00, 0x00, 0x00, 0x00, 0x0f, 0x00, 0x00, 0x00, 0x64, 0x03, 0x00, 0x00,
  0x04, 0x03, 0x00, 0x00, 0xb4, 0x02, 0x00, 0x00, 0x8c, 0x02, 0x00, 0x00,
  0x58, 0x02, 0x00, 0x00, 0x28, 0x02, 0x00, 0x00, 0xe8, 0x01, 0x00, 0x00,
  0xb0, 0x01, 0x00, 0x00, 0x7c, 0x01, 0x00, 0x00, 0x54, 0x01, 0x00, 0x00,
  0xec, 0x00, 0x00, 0x00, 0xbc, 0x00, 0x00, 0x00, 0x94, 0x00, 0x00, 0x00,
  0x3c, 0x00, 0x00, 0x00, 0x04, 0x00, 0x00, 0x00, 0x4a, 0xfe, 0xff, 0xff,
  0x00, 0x00, 0x00, 0x08, 0x08, 0x00, 0x00, 0x00, 0x18, 0x00, 0x00, 0x00,
  0x0c, 0x00, 0x00, 0x00, 0x04, 0x00, 0x00, 0x00, 0x18, 0xf3, 0xff, 0xff,
  0x01, 0x00, 0x00, 0x00, 0x23, 0x00, 0x00, 0x00, 0x03, 0x00, 0x00, 0x00,
  0x22, 0x00, 0x00, 0x00, 0x0a, 0x00, 0x00, 0x00, 0x01, 0x00, 0x00, 0x00,
  0x76, 0xfd, 0xff, 0xff, 0x00, 0x00, 0x00, 0x20, 0x01, 0x00, 0x00, 0x00,
  0x34, 0x00, 0x00, 0x00, 0x28, 0x00, 0x00, 0x00, 0x14, 0x00, 0x00, 0x00,
  0x00, 0x00, 0x0e, 0x00, 0x10, 0x00, 0x04, 0x00, 0x08, 0x00, 0x00, 0x00,
  0x00, 0x00, 0x0c, 0x00, 0x0e, 0x00, 0x00, 0x00, 0x06, 0x00, 0x00, 0x00,
  0x06, 0x00, 0x00, 0x00, 0x01, 0x00, 0x00, 0x00, 0x01, 0x00, 0x00, 0x00,
  0x22, 0x00, 0x00, 0x00, 0x04, 0x00, 0x00, 0x00, 0x21, 0x00, 0x00, 0x00,
  0x0d, 0x00, 0x00, 0x00, 0x0e, 0x00, 0x00, 0x00, 0x0f, 0x00, 0x00, 0x00,
  0x36, 0xfe, 0xff, 0xff, 0x05, 0x00, 0x00, 0x00, 0x10, 0x00, 0x00, 0x00,
  0x04, 0x00, 0x00, 0x00, 0x01, 0x00, 0x00, 0x00, 0x21, 0x00, 0x00, 0x00,
  0x02, 0x00, 0x00, 0x00, 0x1c, 0x00, 0x00, 0x00, 0x20, 0x00, 0x00, 0x00,
  0x92, 0xfd, 0xff, 0xff, 0x00, 0x00, 0x00, 0x37, 0x1c, 0x00, 0x00, 0x00,
  0x10, 0x00, 0x00, 0x00, 0x04, 0x00, 0x00, 0x00, 0x62, 0xf3, 0xff, 0xff,
  0x00, 0x00, 0x00, 0x02, 0x01, 0x00, 0x00, 0x00, 0x20, 0x00, 0x00, 0x00,
  0x01, 0x00, 0x00, 0x00, 0x1c, 0x00, 0x00, 0x00, 0x22, 0xff, 0xff, 0xff,
  0x00, 0x00, 0x00, 0x5d, 0x07, 0x00, 0x00, 0x00, 0x3c, 0x00, 0x00, 0x00,
  0x1c, 0x00, 0x00, 0x00, 0x0c, 0x00, 0x00, 0x00, 0x08, 0x00, 0x0c, 0x00,
  0x04, 0x00, 0x08, 0x00, 0x08, 0x00, 0x00, 0x00, 0x02, 0x00, 0x00, 0x00,
  0x03, 0x00, 0x00, 0x00, 0x06, 0x00, 0x00, 0x00, 0x1a, 0x00, 0x00, 0x00,
  0x1b, 0x00, 0x00, 0x00, 0x1c, 0x00, 0x00, 0x00, 0x1d, 0x00, 0x00, 0x00,
  0x1e, 0x00, 0x00, 0x00, 0x1f, 0x00, 0x00, 0x00, 0x06, 0x00, 0x00, 0x00,
  0x06, 0x00, 0x00, 0x00, 0x06, 0x00, 0x00, 0x00, 0x19, 0x00, 0x00, 0x00,
  0x13, 0x00, 0x00, 0x00, 0x16, 0x00, 0x00, 0x00, 0x14, 0x00, 0x00, 0x00,
  0xea, 0xfe, 0xff, 0xff, 0x03, 0x00, 0x00, 0x00, 0x10, 0x00, 0x00, 0x00,
  0x04, 0x00, 0x00, 0x00, 0x01, 0x00, 0x00, 0x00, 0x19, 0x00, 0x00, 0x00,
  0x02, 0x00, 0x00, 0x00, 0x18, 0x00, 0x00, 0x00, 0x07, 0x00, 0x00, 0x00,
  0xaa, 0xff, 0xff, 0xff, 0x00, 0x00, 0x00, 0x0a, 0x06, 0x00, 0x00, 0x00,
  0x18, 0x00, 0x00, 0x00, 0x0c, 0x00, 0x00, 0x00, 0x04, 0x00, 0x00, 0x00,
  0x78, 0xf4, 0xff, 0xff, 0x01, 0x00, 0x00, 0x00, 0x18, 0x00, 0x00, 0x00,
  0x02, 0x00, 0x00, 0x00, 0x17, 0x00, 0x00, 0x00, 0x05, 0x00, 0x00, 0x00,
  0x3e, 0xff, 0xff, 0xff, 0x05, 0x00, 0x00, 0x00, 0x10, 0x00, 0x00, 0x00,
  0x04, 0x00, 0x00, 0x00, 0x01, 0x00, 0x00, 0x00, 0x17, 0x00, 0x00, 0x00,
  0x02, 0x00, 0x00, 0x00, 0x16, 0x00, 0x00, 0x00, 0x0c, 0x00, 0x00, 0x00,
  0x00, 0x00, 0x0e, 0x00, 0x18, 0x00, 0x08, 0x00, 0x0c, 0x00, 0x10, 0x00,
  0x07, 0x00, 0x14, 0x00, 0x0e, 0x00, 0x00, 0x00, 0x00, 0x00, 0x00, 0x20,
  0x01, 0x00, 0x00, 0x00, 0x1c, 0x00, 0x00, 0x00, 0x10, 0x00, 0x00, 0x00,
  0x04, 0x00, 0x00, 0x00, 0xf6, 0xfe, 0xff, 0xff, 0x01, 0x00, 0x00, 0x00,
  0x01, 0x00, 0x00, 0x00, 0x16, 0x00, 0x00, 0x00, 0x04, 0x00, 0x00, 0x00,
  0x15, 0x00, 0x00, 0x00, 0x0b, 0x00, 0x00, 0x00, 0x0c, 0x00, 0x00, 0x00,
  0x0c, 0x00, 0x00, 0x00, 0xe6, 0xfe, 0xff, 0xff, 0x00, 0x00, 0x00, 0x37,
  0x1c, 0x00, 0x00, 0x00, 0x10, 0x00, 0x00, 0x00, 0x04, 0x00, 0x00, 0x00,
  0xb6, 0xf4, 0xff, 0xff, 0x00, 0x00, 0x00, 0x02, 0x01, 0x00, 0x00, 0x00,
  0x15, 0x00, 0x00, 0x00, 0x01, 0x00, 0x00, 0x00, 0x14, 0x00, 0x00, 0x00,
  0xda, 0xff, 0xff, 0xff, 0x04, 0x00, 0x00, 0x00, 0x10, 0x00, 0x00, 0x00,
  0x04, 0x00, 0x00, 0x00, 0x01, 0x00, 0x00, 0x00, 0x14, 0x00, 0x00, 0x00,
  0x02, 0x00, 0x00, 0x00, 0x00, 0x00, 0x00, 0x00, 0x04, 0x00, 0x00, 0x00,
  0x00, 0x00, 0x0a, 0x00, 0x10, 0x00, 0x04, 0x00, 0x08, 0x00, 0x0c, 0x00,
  0x0a, 0x00, 0x00, 0x00, 0x03, 0x00, 0x00, 0x00, 0x10, 0x00, 0x00, 0x00,
  0x04, 0x00, 0x00, 0x00, 0x01, 0x00, 0x00, 0x00, 0x13, 0x00, 0x00, 0x00,
  0x02, 0x00, 0x00, 0x00, 0x12, 0x00, 0x00, 0x00, 0x07, 0x00, 0x00, 0x00,
  0xc2, 0xff, 0xff, 0xff, 0x00, 0x00, 0x00, 0x3b, 0x02, 0x00, 0x00, 0x00,
  0x24, 0x00, 0x00, 0x00, 0x18, 0x00, 0x00, 0x00, 0x0c, 0x00, 0x00, 0x00,
  0x00, 0x00, 0x06, 0x00, 0x08, 0x00, 0x04, 0x00, 0x06, 0x00, 0x00, 0x00,
  0x02, 0x00, 0x00, 0x00, 0x01, 0x00, 0x00, 0x00, 0x12, 0x00, 0x00, 0x00,
  0x02, 0x00, 0x00, 0x00, 0x11, 0x00, 0x00, 0x00, 0x02, 0x00, 0x00, 0x00,
  0x00, 0x00, 0x0e, 0x00, 0x1a, 0x00, 0x08, 0x00, 0x0c, 0x00, 0x10, 0x00,
  0x07, 0x00, 0x14, 0x00, 0x0e, 0x00, 0x00, 0x00, 0x00, 0x00, 0x00, 0x20,
  0x01, 0x00, 0x00, 0x00, 0x2c, 0x00, 0x00, 0x00, 0x20, 0x00, 0x00, 0x00,
  0x14, 0x00, 0x00, 0x00, 0x00, 0x00, 0x0e, 0x00, 0x08, 0x00, 0x00, 0x00,
  0x00, 0x00, 0x00, 0x00, 0x00, 0x00, 0x04, 0x00, 0x0e, 0x00, 0x00, 0x00,
  0x01, 0x00, 0x00, 0x00, 0x01, 0x00, 0x00, 0x00, 0x11, 0x00, 0x00, 0x00,
  0x04, 0x00, 0x00, 0x00, 0x10, 0x00, 0x00, 0x00, 0x0b, 0x00, 0x00, 0x00,
  0x0c, 0x00, 0x00, 0x00, 0x0c, 0x00, 0x00, 0x00, 0x00, 0x00, 0x0e, 0x00,
  0x14, 0x00, 0x00, 0x00, 0x08, 0x00, 0x0c, 0x00, 0x07, 0x00, 0x10, 0x00,
  0x0e, 0x00, 0x00, 0x00, 0x00, 0x00, 0x00, 0x37, 0x1c, 0x00, 0x00, 0x00,
  0x10, 0x00, 0x00, 0x00, 0x04, 0x00, 0x00, 0x00, 0xde, 0xf5, 0xff, 0xff,
  0x00, 0x00, 0x00, 0x02, 0x01, 0x00, 0x00, 0x00, 0x10, 0x00, 0x00, 0x00,
  0x01, 0x00, 0x00, 0x00, 0x00, 0x00, 0x00, 0x00, 0x01, 0x00, 0x00, 0x00,
  0x23, 0x00, 0x00, 0x00, 0x01, 0x00, 0x00, 0x00, 0x00, 0x00, 0x00, 0x00,
  0x24, 0x00, 0x00, 0x00, 0xa0, 0x08, 0x00, 0x00, 0x58, 0x08, 0x00, 0x00,
  0x1c, 0x08, 0x00, 0x00, 0xe4, 0x07, 0x00, 0x00, 0x98, 0x07, 0x00, 0x00,
  0x4c, 0x07, 0x00, 0x00, 0x1c, 0x07, 0x00, 0x00, 0xf0, 0x06, 0x00, 0x00,
  0xb8, 0x06, 0x00, 0x00, 0x80, 0x06, 0x00, 0x00, 0x44, 0x06, 0x00, 0x00,
  0x08, 0x06, 0x00, 0x00, 0xcc, 0x05, 0x00, 0x00, 0x90, 0x05, 0x00, 0x00,
  0x54, 0x05, 0x00, 0x00, 0x18, 0x05, 0x00, 0x00, 0xe0, 0x04, 0x00, 0x00,
  0xac, 0x04, 0x00, 0x00, 0x74, 0x04, 0x00, 0x00, 0x2c, 0x04, 0x00, 0x00,
  0xd8, 0x03, 0x00, 0x00, 0xa0, 0x03, 0x00, 0x00, 0x6c, 0x03, 0x00, 0x00,
  0x34, 0x03, 0x00, 0x00, 0xf4, 0x02, 0x00, 0x00, 0xa4, 0x02, 0x00, 0x00,
  0x78, 0x02, 0x00, 0x00, 0x4c, 0x02, 0x00, 0x00, 0xfc, 0x01, 0x00, 0x00,
  0xb4, 0x01, 0x00, 0x00, 0x88, 0x01, 0x00, 0x00, 0x38, 0x01, 0x00, 0x00,
  0x00, 0x01, 0x00, 0x00, 0xac, 0x00, 0x00, 0x00, 0x5c, 0x00, 0x00, 0x00,
  0x04, 0x00, 0x00, 0x00, 0x04, 0xf8, 0xff, 0xff, 0x44, 0x00, 0x00, 0x00,
  0x24, 0x00, 0x00, 0x00, 0x1c, 0x00, 0x00, 0x00, 0x14, 0x00, 0x00, 0x00,
  0x04, 0x00, 0x00, 0x00, 0x02, 0x00, 0x00, 0x00, 0xff, 0xff, 0xff, 0xff,
  0x01, 0x00, 0x00, 0x00, 0x1c, 0xf7, 0xff, 0xff, 0x19, 0x00, 0x00, 0x00,
  0x53, 0x74, 0x61, 0x74, 0x65, 0x66, 0x75, 0x6c, 0x50, 0x61, 0x72, 0x74,
  0x69, 0x74, 0x69, 0x6f, 0x6e, 0x65, 0x64, 0x43, 0x61, 0x6c, 0x6c, 0x3a,
  0x30, 0x00, 0x00, 0x00, 0x02, 0x00, 0x00, 0x00, 0x01, 0x00, 0x00, 0x00,
  0x01, 0x00, 0x00, 0x00, 0x58, 0xf8, 0xff, 0xff, 0x3c, 0x00, 0x00, 0x00,
  0x23, 0x00, 0x00, 0x00, 0x1c, 0x00, 0x00, 0x00, 0x14, 0x00, 0x00, 0x00,
  0x04, 0x00, 0x00, 0x00, 0x02, 0x00, 0x00, 0x00, 0xff, 0xff, 0xff, 0xff,
  0xff, 0xff, 0xff, 0xff, 0x70, 0xf7, 0xff, 0xff, 0x12, 0x00, 0x00, 0x00,
  0x74, 0x66, 0x6c, 0x2e, 0x73, 0x74, 0x72, 0x69, 0x64, 0x65, 0x64, 0x5f,
  0x73, 0x6c, 0x69, 0x63, 0x65, 0x32, 0x00, 0x00, 0x02, 0x00, 0x00, 0x00,
  0x01, 0x00, 0x00, 0x00, 0x01, 0x00, 0x00, 0x00, 0xa4, 0xf8, 0xff, 0xff,
  0x3c, 0x00, 0x00, 0x00, 0x22, 0x00, 0x00, 0x00, 0x20, 0x00, 0x00, 0x00,
  0x18, 0x00, 0x00, 0x00, 0x04, 0x00, 0x00, 0x00, 0x03, 0x00, 0x00, 0x00,
  0xff, 0xff, 0xff, 0xff, 0xff, 0xff, 0xff, 0xff, 0xff, 0xff, 0xff, 0xff,
  0xc0, 0xf7, 0xff, 0xff, 0x0c, 0x00, 0x00, 0x00, 0x74, 0x66, 0x6c, 0x2e,
  0x72, 0x65, 0x73, 0x68, 0x61, 0x70, 0x65, 0x31, 0x00, 0x00, 0x00, 0x00,
  0x03, 0x00, 0x00, 0x00, 0x01, 0x00, 0x00, 0x00, 0x01, 0x00, 0x00, 0x00,
  0x01, 0x00, 0x00, 0x00, 0xe6, 0xf9, 0xff, 0xff, 0x00, 0x00, 0x00, 0x02,
  0x24, 0x00, 0x00, 0x00, 0x21, 0x00, 0x00, 0x00, 0x0c, 0x00, 0x00, 0x00,
  0x04, 0x00, 0x00, 0x00, 0x00, 0xf8, 0xff, 0xff, 0x0a, 0x00, 0x00, 0x00,
  0x74, 0x66, 0x6c, 0x2e, 0x73, 0x68, 0x61, 0x70, 0x65, 0x32, 0x00, 0x00,
  0x01, 0x00, 0x00, 0x00, 0x03, 0x00, 0x00, 0x00, 0x28, 0xf9, 0xff, 0xff,
  0x38, 0x00, 0x00, 0x00, 0x20, 0x00, 0x00, 0x00, 0x20, 0x00, 0x00, 0x00,
  0x18, 0x00, 0x00, 0x00, 0x04, 0x00, 0x00, 0x00, 0x03, 0x00, 0x00, 0x00,
  0x06, 0x00, 0x00, 0x00, 0xff, 0xff, 0xff, 0xff, 0x01, 0x00, 0x00, 0x00,
  0x44, 0xf8, 0xff, 0xff, 0x0b, 0x00, 0x00, 0x00, 0x74, 0x66, 0x6c, 0x2e,
  0x77, 0x68, 0x69, 0x6c, 0x65, 0x3a, 0x35, 0x00, 0x03, 0x00, 0x00, 0x00,
  0x06, 0x00, 0x00, 0x00, 0x01, 0x00, 0x00, 0x00, 0x01, 0x00, 0x00, 0x00,
  0xea, 0xf9, 0xff, 0xff, 0x00, 0x00, 0x00, 0x02, 0x1f, 0x00, 0x00, 0x00,
  0x0c, 0x00, 0x00, 0x00, 0x04, 0x00, 0x00, 0x00, 0x7c, 0xf8, 0xff, 0xff,
  0x0b, 0x00, 0x00, 0x00, 0x74, 0x66, 0x6c, 0x2e, 0x77, 0x68, 0x69, 0x6c,
  0x65, 0x3a, 0x34, 0x00, 0x9c, 0xf9, 0xff, 0xff, 0x34, 0x00, 0x00, 0x00,
  0x1e, 0x00, 0x00, 0x00, 0x1c, 0x00, 0x00, 0x00, 0x14, 0x00, 0x00, 0x00,
  0x04, 0x00, 0x00, 0x00, 0x02, 0x00, 0x00, 0x00, 0xff, 0xff, 0xff, 0xff,
  0x05, 0x00, 0x00, 0x00, 0xb4, 0xf8, 0xff, 0xff, 0x0b, 0x00, 0x00, 0x00,
  0x74, 0x66, 0x6c, 0x2e, 0x77, 0x68, 0x69, 0x6c, 0x65, 0x3a, 0x33, 0x00,
  0x02, 0x00, 0x00, 0x00, 0x01, 0x00, 0x00, 0x00, 0x05, 0x00, 0x00, 0x00,
  0xe0, 0xf9, 0xff, 0xff, 0x38, 0x00, 0x00, 0x00, 0x1d, 0x00, 0x00, 0x00,
  0x20, 0x00, 0x00, 0x00, 0x18, 0x00, 0x00, 0x00, 0x04, 0x00, 0x00, 0x00,
  0x03, 0x00, 0x00, 0x00, 0xff, 0xff, 0xff, 0xff, 0xff, 0xff, 0xff, 0xff,
  0xff, 0xff, 0xff, 0xff, 0xfc, 0xf8, 0xff, 0xff, 0x0b, 0x00, 0x00, 0x00,
  0x74, 0x66, 0x6c, 0x2e, 0x77, 0x68, 0x69, 0x6c, 0x65, 0x3a, 0x32, 0x00,
  0x03, 0x00, 0x00, 0x00, 0x01, 0x00, 0x00, 0x00, 0x01, 0x00, 0x00, 0x00,
  0x01, 0x00, 0x00, 0x00, 0xa2, 0xfa, 0xff, 0xff, 0x00, 0x00, 0x00, 0x02,
  0x1c, 0x00, 0x00, 0x00, 0x0c, 0x00, 0x00, 0x00, 0x04, 0x00, 0x00, 0x00,
  0x34, 0xf9, 0xff, 0xff, 0x0b, 0x00, 0x00, 0x00, 0x74, 0x66, 0x6c, 0x2e,
  0x77, 0x68, 0x69, 0x6c, 0x65, 0x3a, 0x31, 0x00, 0xca, 0xfa, 0xff, 0xff,
  0x00, 0x00, 0x00, 0x02, 0x1b, 0x00, 0x00, 0x00, 0x0c, 0x00, 0x00, 0x00,
  0x04, 0x00, 0x00, 0x00, 0x5c, 0xf9, 0xff, 0xff, 0x09, 0x00, 0x00, 0x00,
  0x74, 0x66, 0x6c, 0x2e, 0x77, 0x68, 0x69, 0x6c, 0x65, 0x00, 0x00, 0x00,
  0x7c, 0xfa, 0xff, 0xff, 0x38, 0x00, 0x00, 0x00, 0x1a, 0x00, 0x00, 0x00,
  0x20, 0x00, 0x00, 0x00, 0x18, 0x00, 0x00, 0x00, 0x04, 0x00, 0x00, 0x00,
  0x03, 0x00, 0x00, 0x00, 0xff, 0xff, 0xff, 0xff, 0xff, 0xff, 0xff, 0xff,
  0xff, 0xff, 0xff, 0xff, 0x98, 0xf9, 0xff, 0xff, 0x09, 0x00, 0x00, 0x00,
  0x74, 0x66, 0x6c, 0x2e, 0x66, 0x69, 0x6c, 0x6c, 0x31, 0x00, 0x00, 0x00,
  0x03, 0x00, 0x00, 0x00, 0x01, 0x00, 0x00, 0x00, 0x01, 0x00, 0x00, 0x00,
  0x01, 0x00, 0x00, 0x00, 0xba, 0xfb, 0xff, 0xff, 0x00, 0x00, 0x00, 0x02,
  0x2c, 0x00, 0x00, 0x00, 0x19, 0x00, 0x00, 0x00, 0x0c, 0x00, 0x00, 0x00,
  0x04, 0x00, 0x00, 0x00, 0xd4, 0xf9, 0xff, 0xff, 0x11, 0x00, 0x00, 0x00,
  0x74, 0x66, 0x6c, 0x2e, 0x63, 0x6f, 0x6e, 0x63, 0x61, 0x74, 0x65, 0x6e,
  0x61, 0x74, 0x69, 0x6f, 0x6e, 0x00, 0x00, 0x00, 0x01, 0x00, 0x00, 0x00,
  0x03, 0x00, 0x00, 0x00, 0xf6, 0xfb, 0xff, 0xff, 0x00, 0x00, 0x00, 0x02,
  0x24, 0x00, 0x00, 0x00, 0x18, 0x00, 0x00, 0x00, 0x0c, 0x00, 0x00, 0x00,
  0x04, 0x00, 0x00, 0x00, 0x10, 0xfa, 0xff, 0xff, 0x0b, 0x00, 0x00, 0x00,
  0x74, 0x66, 0x6c, 0x2e, 0x72, 0x65, 0x73, 0x68, 0x61, 0x70, 0x65, 0x00,
  0x01, 0x00, 0x00, 0x00, 0x01, 0x00, 0x00, 0x00, 0xae, 0xfb, 0xff, 0xff,
  0x00, 0x00, 0x00, 0x02, 0x17, 0x00, 0x00, 0x00, 0x0c, 0x00, 0x00, 0x00,
  0x04, 0x00, 0x00, 0x00, 0x40, 0xfa, 0xff, 0xff, 0x12, 0x00, 0x00, 0x00,
  0x74, 0x66, 0x6c, 0x2e, 0x73, 0x74, 0x72, 0x69, 0x64, 0x65, 0x64, 0x5f,
  0x73, 0x6c, 0x69, 0x63, 0x65, 0x31, 0x00, 0x00, 0x5a, 0xfc, 0xff, 0xff,
  0x00, 0x00, 0x00, 0x02, 0x24, 0x00, 0x00, 0x00, 0x16, 0x00, 0x00, 0x00,
  0x0c, 0x00, 0x00, 0x00, 0x04, 0x00, 0x00, 0x00, 0x74, 0xfa, 0xff, 0xff,
  0x0a, 0x00, 0x00, 0x00, 0x74, 0x66, 0x6c, 0x2e, 0x73, 0x68, 0x61, 0x70,
  0x65, 0x31, 0x00, 0x00, 0x01, 0x00, 0x00, 0x00, 0x03, 0x00, 0x00, 0x00,
  0x9c, 0xfb, 0xff, 0xff, 0x3c, 0x00, 0x00, 0x00, 0x15, 0x00, 0x00, 0x00,
  0x20, 0x00, 0x00, 0x00, 0x18, 0x00, 0x00, 0x00, 0x04, 0x00, 0x00, 0x00,
  0x03, 0x00, 0x00, 0x00, 0x06, 0x00, 0x00, 0x00, 0xff, 0xff, 0xff, 0xff,
  0x01, 0x00, 0x00, 0x00, 0xb8, 0xfa, 0xff, 0xff, 0x0d, 0x00, 0x00, 0x00,
  0x74, 0x66, 0x6c, 0x2e, 0x74, 0x72, 0x61, 0x6e, 0x73, 0x70, 0x6f, 0x73,
  0x65, 0x00, 0x00, 0x00, 0x03, 0x00, 0x00, 0x00, 0x06, 0x00, 0x00, 0x00,
  0x01, 0x00, 0x00, 0x00, 0x01, 0x00, 0x00, 0x00, 0xec, 0xfb, 0xff, 0xff,
  0x34, 0x00, 0x00, 0x00, 0x14, 0x00, 0x00, 0x00, 0x1c, 0x00, 0x00, 0x00,
  0x14, 0x00, 0x00, 0x00, 0x04, 0x00, 0x00, 0x00, 0x02, 0x00, 0x00, 0x00,
  0xff, 0xff, 0xff, 0xff, 0x05, 0x00, 0x00, 0x00, 0x04, 0xfb, 0xff, 0xff,
  0x08, 0x00, 0x00, 0x00, 0x74, 0x66, 0x6c, 0x2e, 0x66, 0x69, 0x6c, 0x6c,
  0x00, 0x00, 0x00, 0x00, 0x02, 0x00, 0x00, 0x00, 0x01, 0x00, 0x00, 0x00,
  0x05, 0x00, 0x00, 0x00, 0x22, 0xfd, 0xff, 0xff, 0x00, 0x00, 0x00, 0x02,
  0x24, 0x00, 0x00, 0x00, 0x13, 0x00, 0x00, 0x00, 0x0c, 0x00, 0x00, 0x00,
  0x04, 0x00, 0x00, 0x00, 0x3c, 0xfb, 0xff, 0xff, 0x08, 0x00, 0x00, 0x00,
  0x74, 0x66, 0x6c, 0x2e, 0x70, 0x61, 0x63, 0x6b, 0x00, 0x00, 0x00, 0x00,
  0x01, 0x00, 0x00, 0x00, 0x02, 0x00, 0x00, 0x00, 0xda, 0xfc, 0xff, 0xff,
  0x00, 0x00, 0x00, 0x02, 0x12, 0x00, 0x00, 0x00, 0x0c, 0x00, 0x00, 0x00,
  0x04, 0x00, 0x00, 0x00, 0x6c, 0xfb, 0xff, 0xff, 0x11, 0x00, 0x00, 0x00,
  0x74, 0x66, 0x6c, 0x2e, 0x73, 0x74, 0x72, 0x69, 0x64, 0x65, 0x64, 0x5f,
  0x73, 0x6c, 0x69, 0x63, 0x65, 0x00, 0x00, 0x00, 0x86, 0xfd, 0xff, 0xff,
  0x00, 0x00, 0x00, 0x02, 0x24, 0x00, 0x00, 0x00, 0x11, 0x00, 0x00, 0x00,
  0x0c, 0x00, 0x00, 0x00, 0x04, 0x00, 0x00, 0x00, 0xa0, 0xfb, 0xff, 0xff,
  0x09, 0x00, 0x00, 0x00, 0x74, 0x66, 0x6c, 0x2e, 0x73, 0x68, 0x61, 0x70,
  0x65, 0x00, 0x00, 0x00, 0x01, 0x00, 0x00, 0x00, 0x03, 0x00, 0x00, 0x00,
  0xba, 0xfd, 0xff, 0xff, 0x00, 0x00, 0x00, 0x02, 0x28, 0x00, 0x00, 0x00,
  0x10, 0x00, 0x00, 0x00, 0x0c, 0x00, 0x00, 0x00, 0x04, 0x00, 0x00, 0x00,
  0xd4, 0xfb, 0xff, 0xff, 0x0e, 0x00, 0x00, 0x00, 0x73, 0x74, 0x64, 0x2e,
  0x63, 0x6f, 0x6e, 0x73, 0x74, 0x61, 0x6e, 0x74, 0x31, 0x33, 0x00, 0x00,
  0x01, 0x00, 0x00, 0x00, 0x03, 0x00, 0x00, 0x00, 0xf2, 0xfd, 0xff, 0xff,
  0x00, 0x00, 0x00, 0x02, 0x28, 0x00, 0x00, 0x00, 0x0f, 0x00, 0x00, 0x00,
  0x0c, 0x00, 0x00, 0x00, 0x04, 0x00, 0x00, 0x00, 0x0c, 0xfc, 0xff, 0xff,
  0x0e, 0x00, 0x00, 0x00, 0x73, 0x74, 0x64, 0x2e, 0x63, 0x6f, 0x6e, 0x73,
  0x74, 0x61, 0x6e, 0x74, 0x31, 0x32, 0x00, 0x00, 0x01, 0x00, 0x00, 0x00,
  0x03, 0x00, 0x00, 0x00, 0x2a, 0xfe, 0xff, 0xff, 0x00, 0x00, 0x00, 0x02,
  0x28, 0x00, 0x00, 0x00, 0x0e, 0x00, 0x00, 0x00, 0x0c, 0x00, 0x00, 0x00,
  0x04, 0x00, 0x00, 0x00, 0x44, 0xfc, 0xff, 0xff, 0x0e, 0x00, 0x00, 0x00,
  0x73, 0x74, 0x64, 0x2e, 0x63, 0x6f, 0x6e, 0x73, 0x74, 0x61, 0x6e, 0x74,
  0x31, 0x31, 0x00, 0x00, 0x01, 0x00, 0x00, 0x00, 0x03, 0x00, 0x00, 0x00,
  0x62, 0xfe, 0xff, 0xff, 0x00, 0x00, 0x00, 0x02, 0x28, 0x00, 0x00, 0x00,
  0x0d, 0x00, 0x00, 0x00, 0x0c, 0x00, 0x00, 0x00, 0x04, 0x00, 0x00, 0x00,
  0x7c, 0xfc, 0xff, 0xff, 0x0e, 0x00, 0x00, 0x00, 0x73, 0x74, 0x64, 0x2e,
  0x63, 0x6f, 0x6e, 0x73, 0x74, 0x61, 0x6e, 0x74, 0x31, 0x30, 0x00, 0x00,
  0x01, 0x00, 0x00, 0x00, 0x01, 0x00, 0x00, 0x00, 0x9a, 0xfe, 0xff, 0xff,
  0x00, 0x00, 0x00, 0x02, 0x28, 0x00, 0x00, 0x00, 0x0c, 0x00, 0x00, 0x00,
  0x0c, 0x00, 0x00, 0x00, 0x04, 0x00, 0x00, 0x00, 0xb4, 0xfc, 0xff, 0xff,
  0x0d, 0x00, 0x00, 0x00, 0x73, 0x74, 0x64, 0x2e, 0x63, 0x6f, 0x6e, 0x73,
  0x74, 0x61, 0x6e, 0x74, 0x39, 0x00, 0x00, 0x00, 0x01, 0x00, 0x00, 0x00,
  0x01, 0x00, 0x00, 0x00, 0x1e, 0xfe, 0xff, 0xff, 0x28, 0x00, 0x00, 0x00,
  0x0b, 0x00, 0x00, 0x00, 0x0c, 0x00, 0x00, 0x00, 0x04, 0x00, 0x00, 0x00,
  0xe8, 0xfc, 0xff, 0xff, 0x0d, 0x00, 0x00, 0x00, 0x73, 0x74, 0x64, 0x2e,
  0x63, 0x6f, 0x6e, 0x73, 0x74, 0x61, 0x6e, 0x74, 0x38, 0x00, 0x00, 0x00,
  0x02, 0x00, 0x00, 0x00, 0x01, 0x00, 0x00, 0x00, 0x05, 0x00, 0x00, 0x00,
  0x56, 0xfe, 0xff, 0xff, 0x28, 0x00, 0x00, 0x00, 0x0a, 0x00, 0x00, 0x00,
  0x0c, 0x00, 0x00, 0x00, 0x04, 0x00, 0x00, 0x00, 0x20, 0xfd, 0xff, 0xff,
  0x0d, 0x00, 0x00, 0x00, 0x73, 0x74, 0x64, 0x2e, 0x63, 0x6f, 0x6e, 0x73,
  0x74, 0x61, 0x6e, 0x74, 0x37, 0x00, 0x00, 0x00, 0x01, 0x00, 0x00, 0x00,
  0x0f, 0x00, 0x00, 0x00, 0x8a, 0xfe, 0xff, 0xff, 0x28, 0x00, 0x00, 0x00,
  0x09, 0x00, 0x00, 0x00, 0x0c, 0x00, 0x00, 0x00, 0x04, 0x00, 0x00, 0x00,
  0x54, 0xfd, 0xff, 0xff, 0x0d, 0x00, 0x00, 0x00, 0x73, 0x74, 0x64, 0x2e,
  0x63, 0x6f, 0x6e, 0x73, 0x74, 0x61, 0x6e, 0x74, 0x36, 0x00, 0x00, 0x00,
  0x01, 0x00, 0x00, 0x00, 0x0f, 0x00, 0x00, 0x00, 0x2a, 0xff, 0xff, 0xff,
  0x08, 0x00, 0x00, 0x00, 0x0c, 0x00, 0x00, 0x00, 0x04, 0x00, 0x00, 0x00,
  0x84, 0xfd, 0xff, 0xff, 0x0d, 0x00, 0x00, 0x00, 0x73, 0x74, 0x64, 0x2e,
  0x63, 0x6f, 0x6e, 0x73, 0x74, 0x61, 0x6e, 0x74, 0x35, 0x00, 0x00, 0x00,
  0x1e, 0xff, 0xff, 0xff, 0x00, 0x00, 0x00, 0x02, 0x07, 0x00, 0x00, 0x00,
  0x0c, 0x00, 0x00, 0x00, 0x04, 0x00, 0x00, 0x00, 0xb0, 0xfd, 0xff, 0xff,
  0x0d, 0x00, 0x00, 0x00, 0x73, 0x74, 0x64, 0x2e, 0x63, 0x6f, 0x6e, 0x73,
  0x74, 0x61, 0x6e, 0x74, 0x34, 0x00, 0x00, 0x00, 0xc6, 0xff, 0xff, 0xff,
  0x00, 0x00, 0x00, 0x02, 0x28, 0x00, 0x00, 0x00, 0x06, 0x00, 0x00, 0x00,
  0x0c, 0x00, 0x00, 0x00, 0x04, 0x00, 0x00, 0x00, 0xe0, 0xfd, 0xff, 0xff,
  0x0d, 0x00, 0x00, 0x00, 0x73, 0x74, 0x64, 0x2e, 0x63, 0x6f, 0x6e, 0x73,
  0x74, 0x61, 0x6e, 0x74, 0x33, 0x00, 0x00, 0x00, 0x01, 0x00, 0x00, 0x00,
  0x02, 0x00, 0x00, 0x00, 0x00, 0x00, 0x0e, 0x00, 0x18, 0x00, 0x08, 0x00,
  0x07, 0x00, 0x0c, 0x00, 0x10, 0x00, 0x14, 0x00, 0x0e, 0x00, 0x00, 0x00,
  0x00, 0x00, 0x00, 0x02, 0x28, 0x00, 0x00, 0x00, 0x05, 0x00, 0x00, 0x00,
  0x0c, 0x00, 0x00, 0x00, 0x04, 0x00, 0x00, 0x00, 0x28, 0xfe, 0xff, 0xff,
  0x0d, 0x00, 0x00, 0x00, 0x73, 0x74, 0x64, 0x2e, 0x63, 0x6f, 0x6e, 0x73,
  0x74, 0x61, 0x6e, 0x74, 0x32, 0x00, 0x00, 0x00, 0x01, 0x00, 0x00, 0x00,
  0x03, 0x00, 0x00, 0x00, 0x00, 0x00, 0x0e, 0x00, 0x10, 0x00, 0x00, 0x00,
  0x00, 0x00, 0x04, 0x00, 0x08, 0x00, 0x0c, 0x00, 0x0e, 0x00, 0x00, 0x00,
  0x04, 0x00, 0x00, 0x00, 0x0c, 0x00, 0x00, 0x00, 0x04, 0x00, 0x00, 0x00,
  0x68, 0xfe, 0xff, 0xff, 0x0d, 0x00, 0x00, 0x00, 0x73, 0x74, 0x64, 0x2e,
  0x63, 0x6f, 0x6e, 0x73, 0x74, 0x61, 0x6e, 0x74, 0x31, 0x00, 0x0e, 0x00,
  0x14, 0x00, 0x00, 0x00, 0x07, 0x00, 0x08, 0x00, 0x0c, 0x00, 0x10, 0x00,
  0x0e, 0x00, 0x00, 0x00, 0x00, 0x00, 0x00, 0x02, 0x03, 0x00, 0x00, 0x00,
  0x0c, 0x00, 0x00, 0x00, 0x04, 0x00, 0x00, 0x00, 0xa0, 0xfe, 0xff, 0xff,
  0x0c, 0x00, 0x00, 0x00, 0x73, 0x74, 0x64, 0x2e, 0x63, 0x6f, 0x6e, 0x73,
  0x74, 0x61, 0x6e, 0x74, 0x00, 0x00, 0x0e, 0x00, 0x14, 0x00, 0x04, 0x00,
  0x00, 0x00, 0x08, 0x00, 0x0c, 0x00, 0x10, 0x00, 0x0e, 0x00, 0x00, 0x00,
  0x24, 0x00, 0x00, 0x00, 0x02, 0x00, 0x00, 0x00, 0x0c, 0x00, 0x00, 0x00,
  0x04, 0x00, 0x00, 0x00, 0xd8, 0xfe, 0xff, 0xff, 0x0a, 0x00, 0x00, 0x00,
  0x64, 0x65, 0x6e, 0x73, 0x65, 0x2f, 0x62, 0x69, 0x61, 0x73, 0x00, 0x00,
  0x01, 0x00, 0x00, 0x00, 0x01, 0x00, 0x00, 0x00, 0x14, 0x00, 0x18, 0x00,
  0x04, 0x00, 0x00, 0x00, 0x08, 0x00, 0x0c, 0x00, 0x10, 0x00, 0x00, 0x00,
  0x00, 0x00, 0x14, 0x00, 0x14, 0x00, 0x00, 0x00, 0x48, 0x00, 0x00, 0x00,
  0x01, 0x00, 0x00, 0x00, 0x20, 0x00, 0x00, 0x00, 0x18, 0x00, 0x00, 0x00,
  0x04, 0x00, 0x00, 0x00, 0x03, 0x00, 0x00, 0x00, 0xff, 0xff, 0xff, 0xff,
  0x06, 0x00, 0x00, 0x00, 0x01, 0x00, 0x00, 0x00, 0x30, 0xff, 0xff, 0xff,
  0x1b, 0x00, 0x00, 0x00, 0x73, 0x65, 0x72, 0x76, 0x69, 0x6e, 0x67, 0x5f,
  0x64, 0x65, 0x66, 0x61, 0x75, 0x6c, 0x74, 0x5f, 0x67, 0x72, 0x75, 0x5f,
  0x69, 0x6e, 0x70, 0x75, 0x74, 0x3a, 0x30, 0x00, 0x03, 0x00, 0x00, 0x00,
  0x01, 0x00, 0x00, 0x00, 0x06, 0x00, 0x00, 0x00, 0x01, 0x00, 0x00, 0x00,
  0x14, 0x00, 0x00, 0x00, 0xfc, 0x00, 0x00, 0x00, 0xec, 0x00, 0x00, 0x00,
  0xdc, 0x00, 0x00, 0x00, 0xd0, 0x00, 0x00, 0x00, 0xc4, 0x00, 0x00, 0x00,
  0xb8, 0x00, 0x00, 0x00, 0xac, 0x00, 0x00, 0x00, 0xa0, 0x00, 0x00, 0x00,
  0x90, 0x00, 0x00, 0x00, 0x7c, 0x00, 0x00, 0x00, 0x74, 0x00, 0x00, 0x00,
  0x64, 0x00, 0x00, 0x00, 0x58, 0x00, 0x00, 0x00, 0x4c, 0x00, 0x00, 0x00,
  0x40, 0x00, 0x00, 0x00, 0x34, 0x00, 0x00, 0x00, 0x28, 0x00, 0x00, 0x00,
  0x1c, 0x00, 0x00, 0x00, 0x10, 0x00, 0x00, 0x00, 0x04, 0x00, 0x00, 0x00,
  0x5a, 0xff, 0xff, 0xff, 0x00, 0x00, 0x00, 0x35, 0x62, 0xff, 0xff, 0xff,
  0x00, 0x00, 0x00, 0x46, 0x6a, 0xff, 0xff, 0xff, 0x00, 0x00, 0x00, 0x41,
  0x72, 0xff, 0xff, 0xff, 0x00, 0x00, 0x00, 0x1c, 0x7a, 0xff, 0xff, 0xff,
  0x00, 0x00, 0x00, 0x29, 0x82, 0xff, 0xff, 0xff, 0x00, 0x00, 0x00, 0x12,
  0x8a, 0xff, 0xff, 0xff, 0x00, 0x00, 0x00, 0x0e, 0x92, 0xff, 0xff, 0xff,
  0x00, 0x00, 0x00, 0x24, 0x9a, 0xff, 0xff, 0xff, 0x00, 0x00, 0x00, 0x31,
  0x04, 0x00, 0x04, 0x00, 0x04, 0x00, 0x00, 0x00, 0xb6, 0xff, 0xff, 0xff,
  0x00, 0x3a, 0x0a, 0x00, 0x0c, 0x00, 0x07, 0x00, 0x00, 0x00, 0x08, 0x00,
  0x0a, 0x00, 0x00, 0x00, 0x00, 0x00, 0x00, 0x09, 0x03, 0x00, 0x00, 0x00,
  0xc6, 0xff, 0xff, 0xff, 0x00, 0x00, 0x00, 0x77, 0xce, 0xff, 0xff, 0xff,
  0x00, 0x00, 0x00, 0x02, 0xd6, 0xff, 0xff, 0xff, 0x00, 0x00, 0x00, 0x16,
  0xde, 0xff, 0xff, 0xff, 0x00, 0x00, 0x00, 0x27, 0xe6, 0xff, 0xff, 0xff,
  0x00, 0x00, 0x00, 0x5e, 0xfa, 0xff, 0xff, 0xff, 0x00, 0x53, 0x06, 0x00,
  0x06, 0x00, 0x05, 0x00, 0x06, 0x00, 0x00, 0x00, 0x00, 0x2d, 0x06, 0x00,
  0x08, 0x00, 0x07, 0x00, 0x06, 0x00, 0x00, 0x00, 0x00, 0x00, 0x00, 0x4d
 
};

#endif //TS_FORECAST_LITE_H